{
  "version": "1.0",
  "truncation": null,
  "padding": null,
  "added_tokens": [
    {
      "id": 0,
      "content": "[PAD]",
      "single_word": false,
      "lstrip": false,
      "rstrip": false,
      "normalized": false,
      "special": true
    },
    {
      "id": 1,
      "content": "[BOS]",
      "single_word": false,
      "lstrip": false,
      "rstrip": false,
      "normalized": false,
      "special": true
    },
    {
      "id": 2,
      "content": "<[|endofprompt|]>",
      "single_word": false,
      "lstrip": false,
      "rstrip": false,
      "normalized": false,
      "special": true
    },
    {
      "id": 3,
      "content": "[CLS]",
      "single_word": false,
      "lstrip": false,
      "rstrip": false,
      "normalized": false,
      "special": true
    },
    {
      "id": 4,
      "content": "[SEP]",
      "single_word": false,
      "lstrip": false,
      "rstrip": false,
      "normalized": false,
      "special": true
    },
    {
      "id": 5,
      "content": "[MASK]",
      "single_word": false,
      "lstrip": false,
      "rstrip": false,
      "normalized": false,
      "special": true
    },
    {
      "id": 6,
      "content": "[UNK]",
      "single_word": false,
      "lstrip": false,
      "rstrip": false,
      "normalized": false,
      "special": true
    }
  ],
  "normalizer": null,
  "pre_tokenizer": {
    "type": "ByteLevel",
    "add_prefix_space": true,
    "trim_offsets": true,
    "use_regex": true
  },
  "post_processor": null,
  "decoder": {
    "type": "ByteLevel",
    "add_prefix_space": true,
    "trim_offsets": true,
    "use_regex": true
  },
  "model": {
    "type": "BPE",
    "dropout": null,
    "unk_token": null,
    "continuing_subword_prefix": null,
    "end_of_word_suffix": null,
    "fuse_unk": false,
    "byte_fallback": false,
    "vocab": {
      "[PAD]": 0,
      "[BOS]": 1,
      "[EOS]": 2,
      "[CLS]": 3,
      "[SEP]": 4,
      "[MASK]": 5,
      "[UNK]": 6,
      "!": 7,
      "\"": 8,
      "#": 9,
      "$": 10,
      "%": 11,
      "&": 12,
      "'": 13,
      "(": 14,
      ")": 15,
      "*": 16,
      "+": 17,
      ",": 18,
      "-": 19,
      ".": 20,
      "/": 21,
      "0": 22,
      "1": 23,
      "2": 24,
      "3": 25,
      "4": 26,
      "5": 27,
      "6": 28,
      "7": 29,
      "8": 30,
      "9": 31,
      ":": 32,
      ";": 33,
      "<": 34,
      "=": 35,
      ">": 36,
      "?": 37,
      "@": 38,
      "A": 39,
      "B": 40,
      "C": 41,
      "D": 42,
      "E": 43,
      "F": 44,
      "G": 45,
      "H": 46,
      "I": 47,
      "J": 48,
      "K": 49,
      "L": 50,
      "M": 51,
      "N": 52,
      "O": 53,
      "P": 54,
      "Q": 55,
      "R": 56,
      "S": 57,
      "T": 58,
      "U": 59,
      "V": 60,
      "W": 61,
      "X": 62,
      "Y": 63,
      "Z": 64,
      "[": 65,
      "\\": 66,
      "]": 67,
      "^": 68,
      "_": 69,
      "`": 70,
      "a": 71,
      "b": 72,
      "c": 73,
      "d": 74,
      "e": 75,
      "f": 76,
      "g": 77,
      "h": 78,
      "i": 79,
      "j": 80,
      "k": 81,
      "l": 82,
      "m": 83,
      "n": 84,
      "o": 85,
      "p": 86,
      "q": 87,
      "r": 88,
      "s": 89,
      "t": 90,
      "u": 91,
      "v": 92,
      "w": 93,
      "x": 94,
      "y": 95,
      "z": 96,
      "{": 97,
      "|": 98,
      "}": 99,
      "~": 100,
      "·": 101,
      "½": 102,
      "¿": 103,
      "Ë": 104,
      "Ì": 105,
      "Ñ": 106,
      "Õ": 107,
      "×": 108,
      "Ù": 109,
      "ï": 110,
      "Ā": 111,
      "Ċ": 112,
      "č": 113,
      "Ġ": 114,
      "ġ": 115,
      "Ģ": 116,
      "ĩ": 117,
      "Ĵ": 118,
      "Ķ": 119,
      "ķ": 120,
      "ľ": 121,
      "Ł": 122,
      "čĊ": 123,
      "Ġt": 124,
      "he": 125,
      "in": 126,
      "Ġa": 127,
      "re": 128,
      "on": 129,
      "er": 130,
      "at": 131,
      "Ġthe": 132,
      "Ġs": 133,
      "or": 134,
      "es": 135,
      "is": 136,
      "Ġc": 137,
      "en": 138,
      "it": 139,
      "an": 140,
      "ion": 141,
      "al": 142,
      "Ġo": 143,
      "le": 144,
      "ing": 145,
      "Ġp": 146,
      "Ġw": 147,
      "Ġf": 148,
      "ro": 149,
      "ed": 150,
      "ar": 151,
      "ct": 152,
      "Ġd": 153,
      "Ġb": 154,
      "Ġm": 155,
      "Ġin": 156,
      "st": 157,
      "Ġof": 158,
      "ic": 159,
      "Ġan": 160,
      "Ġto": 161,
      "ou": 162,
      "et": 163,
      "..": 164,
      "¿½": 165,
      "ï¿½": 166,
      "Ġth": 167,
      "ent": 168,
      "as": 169,
      "Ġ(": 170,
      "Ġn": 171,
      "Ġe": 172,
      "Ġis": 173,
      "the": 174,
      "ĠT": 175,
      "Ġand": 176,
      "om": 177,
      "us": 178,
      "Ġre": 179,
      "id": 180,
      "ut": 181,
      "lo": 182,
      "am": 183,
      "im": 184,
      "ly": 185,
      "Ġ1": 186,
      "Ġ.": 187,
      "ation": 188,
      "il": 189,
      "ac": 190,
      "ve": 191,
      "Ġh": 192,
      "ig": 193,
      "un": 194,
      "em": 195,
      "ĠI": 196,
      "od": 197,
      "el": 198,
      "ag": 199,
      "Ġl": 200,
      "ec": 201,
      "ot": 202,
      "Ġthat": 203,
      "ad": 204,
      "ĠA": 205,
      "Ġfor": 206,
      "Ġpro": 207,
      "if": 208,
      "ul": 209,
      "Ġv": 210,
      "ĠThe": 211,
      "and": 212,
      "....": 213,
      "Ġ2": 214,
      "ow": 215,
      "ith": 216,
      "ab": 217,
      "Ġon": 218,
      "ĠS": 219,
      "ction": 220,
      "Ġg": 221,
      "ter": 222,
      "ur": 223,
      "ce": 224,
      "ol": 225,
      "Ġst": 226,
      "ri": 227,
      "res": 228,
      "ess": 229,
      "ĠC": 230,
      "Ġus": 231,
      "um": 232,
      "ap": 233,
      "Ġbe": 234,
      "ver": 235,
      "qu": 236,
      "Ġit": 237,
      "Ġcon": 238,
      "of": 239,
      "se": 240,
      "ay": 241,
      "ate": 242,
      "ch": 243,
      "Ġex": 244,
      "Ġas": 245,
      "Ġal": 246,
      "Ġy": 247,
      "Ġwe": 248,
      "ist": 249,
      "Ġ=": 250,
      "ple": 251,
      "th": 252,
      "ĠF": 253,
      "pl": 254,
      "ain": 255,
      "Ġare": 256,
      "Ġcom": 257,
      "ĠP": 258,
      "ĠW": 259,
      "cid": 260,
      "Ġwith": 261,
      "ir": 262,
      "ers": 263,
      "for": 264,
      "ect": 265,
      "Ġï¿½": 266,
      "ore": 267,
      "ure": 268,
      "Ġcan": 269,
      "Ġyou": 270,
      "pt": 271,
      "age": 272,
      "to": 273,
      "nt": 274,
      "cess": 275,
      "per": 276,
      "Ġr": 277,
      "Ġwh": 278,
      "Ġ0": 279,
      "ĠM": 280,
      "iz": 281,
      "ex": 282,
      "est": 283,
      "yst": 284,
      "pro": 285,
      "ity": 286,
      "Ġde": 287,
      "ystem": 288,
      "Ġor": 289,
      "ew": 290,
      "Ġby": 291,
      "00": 292,
      "rom": 293,
      "ass": 294,
      "ill": 295,
      "ine": 296,
      "ĠE": 297,
      "are": 298,
      "Ġthis": 299,
      "ĠL": 300,
      "Ġk": 301,
      "Ġ3": 302,
      "ĠB": 303,
      "Ġlo": 304,
      "ĠD": 305,
      "ment": 306,
      "up": 307,
      "ive": 308,
      "ach": 309,
      "ile": 310,
      "able": 311,
      "........": 312,
      "ere": 313,
      "ĠIn": 314,
      "iv": 315,
      ").": 316,
      "ave": 317,
      "ich": 318,
      "Ġse": 319,
      "ther": 320,
      "ĠR": 321,
      "all": 322,
      "ĠN": 323,
      "igh": 324,
      "Ġch": 325,
      "Ġnot": 326,
      "Ġat": 327,
      "unction": 328,
      "ame": 329,
      "ak": 330,
      "ult": 331,
      "end": 332,
      "ally": 333,
      "ld": 334,
      "act": 335,
      "os": 336,
      "ire": 337,
      "put": 338,
      "ant": 339,
      "art": 340,
      "low": 341,
      "Ġsh": 342,
      "ork": 343,
      "Ġfrom": 344,
      "ĠH": 345,
      "alu": 346,
      "ru": 347,
      "Ġ4": 348,
      "ck": 349,
      "ind": 350,
      "ari": 351,
      "ang": 352,
      "),": 353,
      "ust": 354,
      "hen": 355,
      "ata": 356,
      "ĠTh": 357,
      "ight": 358,
      "int": 359,
      "Ġap": 360,
      "ĠO": 361,
      "ory": 362,
      "Ġle": 363,
      "form": 364,
      "Ġsu": 365,
      "ort": 366,
      "Ġim": 367,
      "Ġsp": 368,
      "gr": 369,
      "ble": 370,
      "ode": 371,
      "Ġwhich": 372,
      "ated": 373,
      "ould": 374,
      "ack": 375,
      "Ġun": 376,
      "ition": 377,
      "ial": 378,
      "ĠU": 379,
      "ress": 380,
      "Ġad": 381,
      "Ġhave": 382,
      "Ġi": 383,
      "Ġcl": 384,
      "ations": 385,
      "ies": 386,
      "Ġsystem": 387,
      "Ġcont": 388,
      "ard": 389,
      "out": 390,
      "Ġdo": 391,
      "so": 392,
      "ign": 393,
      "Ġx": 394,
      "de": 395,
      "Ġtr": 396,
      "Ġfunction": 397,
      "Ġ5": 398,
      "ample": 399,
      "ost": 400,
      "ject": 401,
      "av": 402,
      "our": 403,
      "rib": 404,
      "ener": 405,
      "etw": 406,
      "Ġwill": 407,
      "cl": 408,
      "Ġres": 409,
      "Ġmod": 410,
      "eth": 411,
      "ext": 412,
      "fere": 413,
      "con": 414,
      "ord": 415,
      "yp": 416,
      "Ġprocess": 417,
      "Ġif": 418,
      "ens": 419,
      "ome": 420,
      "here": 421,
      "ff": 422,
      "ok": 423,
      "ĠThis": 424,
      "Ġuse": 425,
      "ution": 426,
      "ĠG": 427,
      "ime": 428,
      "ber": 429,
      "()": 430,
      "ace": 431,
      "Ġne": 432,
      "du": 433,
      "Ġone": 434,
      "aus": 435,
      "ning": 436,
      "ase": 437,
      "rit": 438,
      "ical": 439,
      "Ġj": 440,
      "op": 441,
      "Ġob": 442,
      "10": 443,
      "ans": 444,
      "Ġdis": 445,
      "pon": 446,
      "ast": 447,
      "arg": 448,
      "read": 449,
      "ide": 450,
      "ll": 451,
      "ance": 452,
      "ice": 453,
      "Ġ6": 454,
      "ail": 455,
      "Ġdata": 456,
      "port": 457,
      "Ġall": 458,
      "Ġfile": 459,
      "Ġar": 460,
      "ep": 461,
      "Ġvalu": 462,
      "com": 463,
      "Ġset": 464,
      "ents": 465,
      "Ġadd": 466,
      "gram": 467,
      "Ġ|": 468,
      "Ġhas": 469,
      "ser": 470,
      "nd": 471,
      "ern": 472,
      "Ġac": 473,
      "gh": 474,
      "ĠWe": 475,
      "ating": 476,
      "Ġ{": 477,
      "plic": 478,
      "Ġ7": 479,
      "ous": 480,
      "ary": 481,
      "Ġ,": 482,
      "Ġclass": 483,
      "ors": 484,
      "ik": 485,
      "Ġbut": 486,
      "tr": 487,
      ".,": 488,
      "Ġnum": 489,
      "ates": 490,
      "own": 491,
      "Ġ<": 492,
      "Ġvari": 493,
      "12": 494,
      "ions": 495,
      "................": 496,
      "Ġout": 497,
      "Ġsc": 498,
      "erm": 499,
      "Ġpre": 500,
      "Ġcomm": 501,
      "Ġ8": 502,
      "wo": 503,
      "ĠIf": 504,
      "her": 505,
      "ofthe": 506,
      "lock": 507,
      "ĠčĊ": 508,
      "apter": 509,
      "Ġso": 510,
      "irst": 511,
      "Ġdef": 512,
      "ollow": 513,
      "igure": 514,
      "Ġits": 515,
      "Ġother": 516,
      "Ġdes": 517,
      "led": 518,
      "Ġab": 519,
      "ip": 520,
      "urn": 521,
      "oint": 522,
      "les": 523,
      "ake": 524,
      "by": 525,
      "Ġele": 526,
      "Ġ[": 527,
      "irect": 528,
      "te": 529,
      "Ġinter": 530,
      "Ġmore": 531,
      "Ġman": 532,
      "iffere": 533,
      "der": 534,
      "Ġexample": 535,
      "ages": 536,
      "emory": 537,
      "ruct": 538,
      "Ġeach": 539,
      "Ġmodel": 540,
      "ize": 541,
      "Ġwhen": 542,
      "ĠV": 543,
      "ethod": 544,
      "Ġ10": 545,
      "ces": 546,
      "ĠFor": 547,
      "Ġ}": 548,
      "ular": 549,
      "ell": 550,
      "Ġup": 551,
      "ree": 552,
      "ong": 553,
      "Ġtime": 554,
      "ual": 555,
      "Ġqu": 556,
      "ient": 557,
      "si": 558,
      "one": 559,
      "eld": 560,
      "Ġ+": 561,
      "ility": 562,
      "))": 563,
      "etwork": 564,
      "ys": 565,
      "Ġen": 566,
      "Ġsim": 567,
      "Ġ/": 568,
      "be": 569,
      "ause": 570,
      "Ġper": 571,
      "Ġtwo": 572,
      "20": 573,
      "ear": 574,
      "iles": 575,
      "Ġro": 576,
      "ield": 577,
      "Ġpage": 578,
      "ud": 579,
      "ernel": 580,
      "ose": 581,
      "Ġpart": 582,
      "ĠIt": 583,
      "Ġoper": 584,
      "aram": 585,
      "Ġthere": 586,
      "--": 587,
      "ax": 588,
      "ss": 589,
      "ence": 590,
      "ĠY": 591,
      "Ġobject": 592,
      "Ġonly": 593,
      "15": 594,
      "Ġsome": 595,
      "Ġalso": 596,
      "Ġthen": 597,
      "Ġtyp": 598,
      "Ġnew": 599,
      "Ġpr": 600,
      "that": 601,
      "Ġany": 602,
      "Ġfollow": 603,
      "Ġinst": 604,
      "19": 605,
      "Ġrequ": 606,
      "Ġvalue": 607,
      "with": 608,
      "ific": 609,
      "ĠCh": 610,
      "Ġexp": 611,
      "Ġprogram": 612,
      "Ġusing": 613,
      "Ġform": 614,
      "ced": 615,
      "Ġused": 616,
      "ĠJ": 617,
      "ifferent": 618,
      "Ġser": 619,
      "wh": 620,
      "Ġ)": 621,
      "ub": 622,
      "ization": 623,
      "ount": 624,
      "tain": 625,
      "ix": 626,
      "inu": 627,
      "ures": 628,
      "Ġev": 629,
      "its": 630,
      "Ġwork": 631,
      "Ġhe": 632,
      "aramet": 633,
      "istrib": 634,
      "fore": 635,
      "ne": 636,
      "ays": 637,
      "Ġspec": 638,
      "iew": 639,
      "urre": 640,
      "Ġ9": 641,
      "ecause": 642,
      "Ġuser": 643,
      "Ġpl": 644,
      "Ġnumber": 645,
      "ative": 646,
      "Ġhow": 647,
      "Ġsame": 648,
      "turn": 649,
      "Ġcre": 650,
      "Ġrun": 651,
      "Ġwhere": 652,
      "13": 653,
      "Ġmethod": 654,
      "ĠPro": 655,
      "Ġcode": 656,
      "cal": 657,
      "Ġmat": 658,
      ");": 659,
      "Ġneed": 660,
      "Ġgener": 661,
      "ike": 662,
      "Ġz": 663,
      "other": 664,
      "ript": 665,
      "blem": 666,
      ")(": 667,
      "Ġint": 668,
      "Ġyour": 669,
      "app": 670,
      "11": 671,
      "Ġme": 672,
      "we": 673,
      "ob": 674,
      "Ġline": 675,
      "ithm": 676,
      "Ġsuch": 677,
      "not": 678,
      "Ġ-": 679,
      "hed": 680,
      "ise": 681,
      "sh": 682,
      "uch": 683,
      "ĠEx": 684,
      "err": 685,
      "Ġthan": 686,
      "und": 687,
      "pos": 688,
      "tern": 689,
      "Ġthey": 690,
      "Ġfirst": 691,
      "ov": 692,
      "Ġcall": 693,
      "ows": 694,
      "ink": 695,
      "ĠFigure": 696,
      "ever": 697,
      "ond": 698,
      "Ġgr": 699,
      "vice": 700,
      "Ġinto": 701,
      "Ġreg": 702,
      "pend": 703,
      "Ġlist": 704,
      "Ġpos": 705,
      "Ġthese": 706,
      "hat": 707,
      "Ġwrit": 708,
      "ech": 709,
      "gor": 710,
      "resent": 711,
      "ments": 712,
      "Ġ'": 713,
      "ings": 714,
      "Ġno": 715,
      "ound": 716,
      "urrent": 717,
      "eat": 718,
      "Ġgo": 719,
      "Ġlear": 720,
      "Ġcal": 721,
      "ĠK": 722,
      "ange": 723,
      "ra": 724,
      "cept": 725,
      "ied": 726,
      "Ġget": 727,
      "Ġreturn": 728,
      "Ġsee": 729,
      "istribution": 730,
      "Ġover": 731,
      "Ġdirect": 732,
      "ci": 733,
      "gy": 734,
      "18": 735,
      "ite": 736,
      "Ġequ": 737,
      "ib": 738,
      "Ġ\"": 739,
      "ĠCon": 740,
      "Ġdifferent": 741,
      "ator": 742,
      "ethe": 743,
      "ron": 744,
      "Ġread": 745,
      "Ġsub": 746,
      "cre": 747,
      "etwe": 748,
      "aining": 749,
      "Ġ#": 750,
      "sp": 751,
      "Ġpoint": 752,
      "Ġ$": 753,
      "formation": 754,
      "ook": 755,
      "gorithm": 756,
      "ables": 757,
      "Ġcommand": 758,
      "ics": 759,
      "nce": 760,
      "ware": 761,
      "og": 762,
      "ĠX": 763,
      "Ġmemory": 764,
      "lect": 765,
      "Ġlog": 766,
      "Ġfield": 767,
      "Ġnetwork": 768,
      "orm": 769,
      "Ġfiles": 770,
      "ugh": 771,
      "Ġke": 772,
      "ER": 773,
      "ify": 774,
      "iven": 775,
      "Ġdesc": 776,
      "Ġapp": 777,
      "Ġwas": 778,
      "Ġ20": 779,
      "ry": 780,
      "oth": 781,
      "ines": 782,
      "vect": 783,
      "ĠChapter": 784,
      "16": 785,
      "ten": 786,
      "Ġ12": 787,
      "14": 788,
      "ful": 789,
      "17": 790,
      "plement": 791,
      "Ġkernel": 792,
      "Ġwould": 793,
      "Ġsec": 794,
      "Ġopt": 795,
      "cus": 796,
      "aph": 797,
      "thes": 798,
      "Ġrep": 799,
      "ĠAn": 800,
      "etween": 801,
      "ask": 802,
      "ough": 803,
      "The": 804,
      "Ġthem": 805,
      "Ġent": 806,
      "Ġdoes": 807,
      "valu": 808,
      "vers": 809,
      "Ġcol": 810,
      "sid": 811,
      "row": 812,
      "yn": 813,
      "Ġcomp": 814,
      "Ġresult": 815,
      "Ġshould": 816,
      "inal": 817,
      "loc": 818,
      "odel": 819,
      "Ġcor": 820,
      "Ġincl": 821,
      "ically": 822,
      "ery": 823,
      "Ġdec": 824,
      "ding": 825,
      "Ġmay": 826,
      "ability": 827,
      "ctions": 828,
      "ove": 829,
      "Ġdet": 830,
      "Ġappro": 831,
      "olution": 832,
      "Ġbecause": 833,
      "this": 834,
      "Ġapplic": 835,
      "rough": 836,
      "ulti": 837,
      "inter": 838,
      "ick": 839,
      "Ġstr": 840,
      "Ġconst": 841,
      "Ġkn": 842,
      "ampl": 843,
      "Ġ19": 844,
      "ĠAs": 845,
      "Ġcomput": 846,
      "Ġabout": 847,
      "Ġ*": 848,
      "ting": 849,
      "Ġthread": 850,
      "Ġlike": 851,
      "Ġstat": 852,
      "Ġbu": 853,
      "ement": 854,
      "oft": 855,
      "Ġour": 856,
      "ĠYou": 857,
      "pre": 858,
      "enc": 859,
      "Ġfollowing": 860,
      "Ġway": 861,
      "Ġprov": 862,
      "process": 863,
      "elf": 864,
      "which": 865,
      "ude": 866,
      "ier": 867,
      "Ġtest": 868,
      "di": 869,
      "can": 870,
      "dition": 871,
      "Ġname": 872,
      "Ġaddress": 873,
      "32": 874,
      "Ġtrans": 875,
      "Ġmust": 876,
      "ument": 877,
      "ized": 878,
      "very": 879,
      "Ġrel": 880,
      "Ġem": 881,
      "ĠSe": 882,
      "Ġparamet": 883,
      "Ġmake": 884,
      "Ġbetween": 885,
      "Ġpat": 886,
      "from": 887,
      "Ġind": 888,
      "ĠSt": 889,
      "ĠWhen": 890,
      "Ġstruct": 891,
      "Ġaccess": 892,
      "ased": 893,
      "arge": 894,
      "Ġact": 895,
      "ue": 896,
      "Ġerr": 897,
      "Ġterm": 898,
      "Ġpri": 899,
      "Ġproblem": 900,
      "ices": 901,
      "sible": 902,
      "Ġjust": 903,
      "ined": 904,
      "set": 905,
      "Ġcase": 906,
      "inthe": 907,
      "ĠTo": 908,
      "function": 909,
      "Ġback": 910,
      "Ġcalled": 911,
      "ute": 912,
      "PU": 913,
      "pert": 914,
      "ef": 915,
      "get": 916,
      "ually": 917,
      "vel": 918,
      "rol": 919,
      "log": 920,
      "duct": 921,
      "Ġass": 922,
      "Ġwhat": 923,
      "inux": 924,
      "IN": 925,
      "ead": 926,
      "Ġrem": 927,
      "irt": 928,
      "ural": 929,
      "Ġstart": 930,
      "ge": 931,
      "Ġexec": 932,
      "vi": 933,
      "lear": 934,
      "Ġsup": 935,
      "Ġph": 936,
      "Ġimport": 937,
      "Ġcomple": 938,
      "heck": 939,
      "ression": 940,
      "Ġstate": 941,
      "cuss": 942,
      "iss": 943,
      "achine": 944,
      "ource": 945,
      "Ġmany": 946,
      "ingle": 947,
      "ule": 948,
      "ponent": 949,
      "ache": 950,
      "ON": 951,
      "Ġtype": 952,
      "Ġblock": 953,
      "Ġvalues": 954,
      "mall": 955,
      "Ġsign": 956,
      "ved": 957,
      "Ġmost": 958,
      "ĠHow": 959,
      "sc": 960,
      "Ġperform": 961,
      "Ġtheir": 962,
      "round": 963,
      "Ġhand": 964,
      "ĠCom": 965,
      "ional": 966,
      "ark": 967,
      "In": 968,
      "Ġatt": 969,
      "akes": 970,
      "aract": 971,
      "Ġrec": 972,
      "Ġalgorithm": 973,
      "pect": 974,
      "Ġinformation": 975,
      "Ġdistribution": 976,
      "arch": 977,
      "sider": 978,
      "str": 979,
      "fer": 980,
      "respon": 981,
      "Ġpartic": 982,
      "line": 983,
      "als": 984,
      "Ġfind": 985,
      "ts": 986,
      "Ġlearning": 987,
      "par": 988,
      "Ġfeat": 989,
      "Ġinv": 990,
      "aw": 991,
      "Ġam": 992,
      "ault": 993,
      "Ġcurrent": 994,
      "ffect": 995,
      "Ġfact": 996,
      "000": 997,
      "Ġarg": 998,
      "Ġinput": 999,
      "fter": 1000,
      "rix": 1001,
      "Ġbeen": 1002,
      "Ġpass": 1003,
      "energy": 1004,
      "ym": 1005,
      "angu": 1006,
      "ities": 1007,
      "Ġthrough": 1008,
      "mat": 1009,
      "ames": 1010,
      "indows": 1011,
      "Ġallow": 1012,
      "Ġsystems": 1013,
      "word": 1014,
      "Ġcontain": 1015,
      "ĠThere": 1016,
      "ward": 1017,
      "Ġlook": 1018,
      "Ġ:": 1019,
      "Ġtext": 1020,
      "Ġvariable": 1021,
      "amples": 1022,
      "eng": 1023,
      "tt": 1024,
      "Ġend": 1025,
      "requ": 1026,
      "...": 1027,
      "cc": 1028,
      "face": 1029,
      "any": 1030,
      "vector": 1031,
      "ild": 1032,
      "Ġoutput": 1033,
      "Ġimplement": 1034,
      "Ġgiven": 1035,
      "andard": 1036,
      "isting": 1037,
      "irtual": 1038,
      "Ġop": 1039,
      "Ġ14": 1040,
      "Ġspace": 1041,
      "Ġconf": 1042,
      "ared": 1043,
      "Ġwant": 1044,
      "AP": 1045,
      "imes": 1046,
      "Ġelect": 1047,
      "Ġunder": 1048,
      "oid": 1049,
      "ases": 1050,
      "ĠAl": 1051,
      "Ġav": 1052,
      "ont": 1053,
      "system": 1054,
      "roup": 1055,
      "Ġprob": 1056,
      "................................": 1057,
      "ph": 1058,
      "ince": 1059,
      "Ġid": 1060,
      "Ġlay": 1061,
      "net": 1062,
      "Ġright": 1063,
      ")=": 1064,
      "ives": 1065,
      "Ġ13": 1066,
      "erc": 1067,
      "Ġrequest": 1068,
      "cont": 1069,
      "ater": 1070,
      "Ġ15": 1071,
      "Ġ16": 1072,
      "Ġerror": 1073,
      "over": 1074,
      "ole": 1075,
      "file": 1076,
      "andom": 1077,
      "ffic": 1078,
      "Ġmulti": 1079,
      "velo": 1080,
      "pr": 1081,
      "Ġmin": 1082,
      "ish": 1083,
      "alid": 1084,
      "Ġacc": 1085,
      "then": 1086,
      "ote": 1087,
      "Ġenergy": 1088,
      "ified": 1089,
      "itial": 1090,
      "eed": 1091,
      "ug": 1092,
      "def": 1093,
      "red": 1094,
      "Ġvery": 1095,
      "SS": 1096,
      "Ġrepresent": 1097,
      "Ġcharact": 1098,
      "Ġag": 1099,
      "21": 1100,
      "Ġapplication": 1101,
      "add": 1102,
      "ilar": 1103,
      "old": 1104,
      "ï¿½ï¿½": 1105,
      "Ġ200": 1106,
      "ev": 1107,
      "ered": 1108,
      "25": 1109,
      "Ġ11": 1110,
      "class": 1111,
      "=\"": 1112,
      "ted": 1113,
      "ray": 1114,
      "imens": 1115,
      "Ġfunctions": 1116,
      "min": 1117,
      "eli": 1118,
      "ero": 1119,
      "ood": 1120,
      "Ġdispl": 1121,
      "Ġwrite": 1122,
      "Ġmight": 1123,
      "Ġlong": 1124,
      "ash": 1125,
      "Ġanother": 1126,
      "see": 1127,
      "Ġshown": 1128,
      "Ġsingle": 1129,
      "Ġnow": 1130,
      "Ġsecond": 1131,
      "Ġdesign": 1132,
      "Ġrequire": 1133,
      "ference": 1134,
      "ton": 1135,
      "Ġdirectory": 1136,
      "me": 1137,
      "Ġkey": 1138,
      "AT": 1139,
      "Ġsize": 1140,
      "Ġbo": 1141,
      "Ġpropert": 1142,
      "ubl": 1143,
      "Ġmess": 1144,
      "hav": 1145,
      "rue": 1146,
      "22": 1147,
      "iqu": 1148,
      "vari": 1149,
      "48": 1150,
      "data": 1151,
      "model": 1152,
      "wn": 1153,
      "Ġlet": 1154,
      "',": 1155,
      "ential": 1156,
      "ails": 1157,
      "Ġboth": 1158,
      "esc": 1159,
      "Ġview": 1160,
      "ric": 1161,
      "Ġsection": 1162,
      "ĠLinux": 1163,
      "echn": 1164,
      "Ġsmall": 1165,
      "ingthe": 1166,
      "Ġelement": 1167,
      "ST": 1168,
      "ft": 1169,
      "Ġhard": 1170,
      "Ġchang": 1171,
      "Ġword": 1172,
      "Ġchange": 1173,
      "Ġfl": 1174,
      "page": 1175,
      "Ġaut": 1176,
      "io": 1177,
      "idd": 1178,
      "Ġimage": 1179,
      "Ġprint": 1180,
      "Ġnext": 1181,
      "Ġknow": 1182,
      "Ġdri": 1183,
      "ĠWindows": 1184,
      "velop": 1185,
      "atch": 1186,
      "Ġdescrib": 1187,
      "Ġdevice": 1188,
      "Ġprovid": 1189,
      "Ġcould": 1190,
      "pose": 1191,
      "Ġpo": 1192,
      "Ġevery": 1193,
      "rop": 1194,
      "Ġvers": 1195,
      "Ġmain": 1196,
      "umber": 1197,
      "Ġstructure": 1198,
      "Ġtem": 1199,
      "Ġpossible": 1200,
      "Ġlink": 1201,
      "Ġcreate": 1202,
      "Ġvariables": 1203,
      "Ġwell": 1204,
      "ational": 1205,
      "col": 1206,
      "Ġserver": 1207,
      "imit": 1208,
      "ailable": 1209,
      "hes": 1210,
      "Ġprocesses": 1211,
      "reg": 1212,
      "ade": 1213,
      "Ġgeneral": 1214,
      "24": 1215,
      "Ġeven": 1216,
      "ĠHowever": 1217,
      "ĠAd": 1218,
      "23": 1219,
      "Ġmax": 1220,
      "opy": 1221,
      "Ġdi": 1222,
      "ull": 1223,
      "vious": 1224,
      "tothe": 1225,
      "Ġeas": 1226,
      "roll": 1227,
      "writ": 1228,
      "Ġ18": 1229,
      "ĠĠ": 1230,
      "Ġcheck": 1231,
      "ection": 1232,
      "Ġed": 1233,
      "Ġdisk": 1234,
      "ior": 1235,
      "abel": 1236,
      "ian": 1237,
      "anguage": 1238,
      "Ġ17": 1239,
      "Ġdepend": 1240,
      "Ġcontrol": 1241,
      "aking": 1242,
      "Ġco": 1243,
      "ply": 1244,
      "Ġsupport": 1245,
      "ĠII": 1246,
      "Ġsimple": 1247,
      "Ġstandard": 1248,
      "aces": 1249,
      "only": 1250,
      "vices": 1251,
      "Ġdiscuss": 1252,
      "Ġtraining": 1253,
      "pri": 1254,
      "ately": 1255,
      "Ġext": 1256,
      "Ġvector": 1257,
      "ength": 1258,
      "ĠUn": 1259,
      "sw": 1260,
      "ĠAp": 1261,
      "Ġwere": 1262,
      "soci": 1263,
      "OR": 1264,
      "ĠFig": 1265,
      "man": 1266,
      "time": 1267,
      "bo": 1268,
      "oftware": 1269,
      "ism": 1270,
      "ets": 1271,
      "Ġinclud": 1272,
      "----": 1273,
      "side": 1274,
      "bers": 1275,
      "isk": 1276,
      "imum": 1277,
      "ume": 1278,
      "estim": 1279,
      "how": 1280,
      "istic": 1281,
      "ĠRe": 1282,
      "Ġchapter": 1283,
      "ĠLet": 1284,
      "ĠNow": 1285,
      "ait": 1286,
      "Ġlarge": 1287,
      "ID": 1288,
      "Ġorder": 1289,
      "Th": 1290,
      "Ġupd": 1291,
      "Ġparameters": 1292,
      "cul": 1293,
      "do": 1294,
      "user": 1295,
      "rodu": 1296,
      "Ġcorrespon": 1297,
      "hell": 1298,
      "Ġnon": 1299,
      "Ġthree": 1300,
      "ision": 1301,
      "ĠZ": 1302,
      "ves": 1303,
      "Ġmodels": 1304,
      "name": 1305,
      "</": 1306,
      "ethat": 1307,
      "):": 1308,
      "ia": 1309,
      "ways": 1310,
      "Ġlow": 1311,
      "bin": 1312,
      "80": 1313,
      "oper": 1314,
      "Ġbefore": 1315,
      "Ġinclude": 1316,
      "ĠUs": 1317,
      "RO": 1318,
      "66": 1319,
      "ification": 1320,
      "ially": 1321,
      "Ġ//": 1322,
      "ream": 1323,
      "Ġtop": 1324,
      "ency": 1325,
      "ava": 1326,
      "ertain": 1327,
      "Ġ25": 1328,
      "ither": 1329,
      "30": 1330,
      "af": 1331,
      "Ġmanag": 1332,
      "Ġdat": 1333,
      "Ġobser": 1334,
      "RE": 1335,
      "==": 1336,
      "Ġmatrix": 1337,
      "Ġstep": 1338,
      "Ġmuch": 1339,
      "ĠCPU": 1340,
      "ormal": 1341,
      "Ġlocal": 1342,
      "hedul": 1343,
      "Ġown": 1344,
      "Ġfr": 1345,
      "ason": 1346,
      "Ġinte": 1347,
      "air": 1348,
      "xim": 1349,
      "ible": 1350,
      "su": 1351,
      "rect": 1352,
      "ather": 1353,
      "Ġlinear": 1354,
      "back": 1355,
      "Ġdoc": 1356,
      "Ġtable": 1357,
      "Ġelements": 1358,
      "88": 1359,
      "used": 1360,
      "Ġprior": 1361,
      "ype": 1362,
      "hether": 1363,
      "Ġpubl": 1364,
      "Ġopen": 1365,
      "ming": 1366,
      "26": 1367,
      "Pro": 1368,
      "Ġwhile": 1369,
      "Ġgroup": 1370,
      "bit": 1371,
      ".)": 1372,
      "agnet": 1373,
      "Ġeffect": 1374,
      "...,": 1375,
      "Ġsom": 1376,
      "ML": 1377,
      "Ġpages": 1378,
      "ml": 1379,
      "ttp": 1380,
      "St": 1381,
      "echan": 1382,
      "Ġparticular": 1383,
      "ccess": 1384,
      "aussi": 1385,
      "IX": 1386,
      "dict": 1387,
      "there": 1388,
      "load": 1389,
      "Ġmethods": 1390,
      "Ġcons": 1391,
      "rupt": 1392,
      "Ġ&": 1393,
      "ected": 1394,
      "Ġet": 1395,
      "Ġgre": 1396,
      "Ġusers": 1397,
      "utes": 1398,
      "adient": 1399,
      "itive": 1400,
      "have": 1401,
      "Ġuses": 1402,
      "ĠBut": 1403,
      "Ġoperating": 1404,
      "38": 1405,
      "Ġu": 1406,
      "Ġmachine": 1407,
      "fficient": 1408,
      "Ġstring": 1409,
      "Ġvirtual": 1410,
      "Ġgraph": 1411,
      "Ġtask": 1412,
      "lp": 1413,
      "Ch": 1414,
      "Ġlearn": 1415,
      "Ġdefault": 1416,
      "27": 1417,
      "Ġweb": 1418,
      "Ġmean": 1419,
      "Ġinitial": 1420,
      "Ġafter": 1421,
      "inst": 1422,
      "28": 1423,
      "though": 1424,
      "Ġhigh": 1425,
      "Ġtake": 1426,
      "quence": 1427,
      "ĠOn": 1428,
      "yth": 1429,
      "40": 1430,
      "cor": 1431,
      "oment": 1432,
      "iron": 1433,
      "ibr": 1434,
      "Ġselect": 1435,
      "Ġshow": 1436,
      "Ġincre": 1437,
      "you": 1438,
      "ower": 1439,
      "ie": 1440,
      "Ġident": 1441,
      "Ġwithout": 1442,
      "sto": 1443,
      "Ġ>": 1444,
      "Ġel": 1445,
      "Ġcondition": 1446,
      "value": 1447,
      "sthe": 1448,
      "paramet": 1449,
      "but": 1450,
      "Ġreal": 1451,
      "29": 1452,
      "urity": 1453,
      "Ġdevelop": 1454,
      "Ġavailable": 1455,
      "Ġdown": 1456,
      "vent": 1457,
      "Ġobjects": 1458,
      "//": 1459,
      "earning": 1460,
      "__": 1461,
      "OS": 1462,
      "stand": 1463,
      "ĠSo": 1464,
      "gener": 1465,
      "Ġ%": 1466,
      "ily": 1467,
      "Ġstore": 1468,
      "ross": 1469,
      "ven": 1470,
      "ĠOne": 1471,
      "Ġoften": 1472,
      "ecom": 1473,
      "Ġpath": 1474,
      "Ġpar": 1475,
      "IT": 1476,
      "Ġpack": 1477,
      "Ġcho": 1478,
      "will": 1479,
      "Ġarray": 1480,
      "Ġdescript": 1481,
      "64": 1482,
      "Ex": 1483,
      "33": 1484,
      "ffer": 1485,
      "Ġpattern": 1486,
      "ĠQ": 1487,
      "pec": 1488,
      "igur": 1489,
      "AC": 1490,
      "Ġphys": 1491,
      "umn": 1492,
      "memory": 1493,
      "vis": 1494,
      "idden": 1495,
      "plo": 1496,
      "Ġconsider": 1497,
      "AR": 1498,
      "Ġbeing": 1499,
      "Ġapproach": 1500,
      "ĠAnd": 1501,
      "Ġcharacter": 1502,
      "Ġbook": 1503,
      "ww": 1504,
      "Ġrunning": 1505,
      "50": 1506,
      "Ġq": 1507,
      "Ġsepar": 1508,
      "order": 1509,
      "ponents": 1510,
      "ĠAll": 1511,
      "ists": 1512,
      "Ġsw": 1513,
      "Ġinstance": 1514,
      "comm": 1515,
      "Ġide": 1516,
      "use": 1517,
      "itor": 1518,
      "ath": 1519,
      "Ġpublic": 1520,
      "aps": 1521,
      "viron": 1522,
      "ances": 1523,
      "Ġsolution": 1524,
      "ĠThese": 1525,
      "Ġclo": 1526,
      "200": 1527,
      "ĠWhat": 1528,
      "LE": 1529,
      "SE": 1530,
      "gin": 1531,
      "ĠTable": 1532,
      "ython": 1533,
      "Ġload": 1534,
      "more": 1535,
      "part": 1536,
      "ger": 1537,
      "Ġzero": 1538,
      "Ġmultiple": 1539,
      "uments": 1540,
      "Ġfeatures": 1541,
      "Ġrespon": 1542,
      "hood": 1543,
      "Ġbas": 1544,
      "dat": 1545,
      "block": 1546,
      "Ġoptim": 1547,
      "pag": 1548,
      "TER": 1549,
      "ilities": 1550,
      "olic": 1551,
      "Com": 1552,
      "itect": 1553,
      "irection": 1554,
      "ently": 1555,
      "uted": 1556,
      "odes": 1557,
      "Ġtrue": 1558,
      "Ġdist": 1559,
      "Ġtechn": 1560,
      "Ġmeans": 1561,
      "depend": 1562,
      "Ġagain": 1563,
      "Ġenc": 1564,
      "ules": 1565,
      "aussian": 1566,
      "Ġaddition": 1567,
      "Ġprobability": 1568,
      "Ġoff": 1569,
      "Ġdisplay": 1570,
      "let": 1571,
      "imensional": 1572,
      "63": 1573,
      "cedure": 1574,
      "],": 1575,
      "Ġmov": 1576,
      "ators": 1577,
      "Ġdefined": 1578,
      "fo": 1579,
      "arent": 1580,
      "62": 1581,
      "iff": 1582,
      "Ġlevel": 1583,
      "rel": 1584,
      "atter": 1585,
      "Ġanal": 1586,
      "adi": 1587,
      "Ġinterface": 1588,
      "ature": 1589,
      "://": 1590,
      "Ġfil": 1591,
      "Re": 1592,
      "erest": 1593,
      "ready": 1594,
      "Ġgu": 1595,
      "Ġpriv": 1596,
      "arget": 1597,
      "urs": 1598,
      "('": 1599,
      "ĠThen": 1600,
      "Ġprodu": 1601,
      "Ġsource": 1602,
      "ĠHT": 1603,
      "Ġshows": 1604,
      "Ġimportant": 1605,
      "Ġsum": 1606,
      "Ġalways": 1607,
      "thread": 1608,
      "ourse": 1609,
      "oun": 1610,
      "Ġmessage": 1611,
      "Ġparameter": 1612,
      "ï¿½,": 1613,
      "AL": 1614,
      "Ġstill": 1615,
      "Ġbrow": 1616,
      "Ġsimilar": 1617,
      "Ġsoftware": 1618,
      "Ġproduct": 1619,
      "Ġput": 1620,
      "Ġrest": 1621,
      "35": 1622,
      "ling": 1623,
      "].": 1624,
      "ikeli": 1625,
      "ynch": 1626,
      "ality": 1627,
      "less": 1628,
      "Ġpoints": 1629,
      "\",": 1630,
      "roller": 1631,
      "Ġdocument": 1632,
      "Ġloc": 1633,
      "34": 1634,
      "Ġ!": 1635,
      "oc": 1636,
      "veral": 1637,
      "Ġrandom": 1638,
      "where": 1639,
      "0000": 1640,
      "Ġcomponent": 1641,
      "level": 1642,
      "Ġwor": 1643,
      "ikelihood": 1644,
      "first": 1645,
      "struct": 1646,
      "Ġorig": 1647,
      "Ġconstant": 1648,
      "96": 1649,
      "such": 1650,
      "Ġtry": 1651,
      "asure": 1652,
      "Ġhere": 1653,
      "Ġexamples": 1654,
      "Ġwhether": 1655,
      "ner": 1656,
      "Ġtypes": 1657,
      "ground": 1658,
      "Ġvalid": 1659,
      "Ġgood": 1660,
      "Ġfeature": 1661,
      "Ġspecific": 1662,
      "way": 1663,
      "ecan": 1664,
      "Ġdeterm": 1665,
      "Ġshell": 1666,
      "ively": 1667,
      "point": 1668,
      "ustr": 1669,
      "ynchron": 1670,
      "FS": 1671,
      "Ġocc": 1672,
      "uring": 1673,
      "Ġatom": 1674,
      "idth": 1675,
      "ources": 1676,
      "Ġwithin": 1677,
      "Ġcommon": 1678,
      "Ġ@": 1679,
      "ĠListing": 1680,
      "Ġestim": 1681,
      "Ġdefin": 1682,
      "ĠSection": 1683,
      "ION": 1684,
      "follow": 1685,
      "Ġarch": 1686,
      "Ġattrib": 1687,
      "ĠJava": 1688,
      "Ġff": 1689,
      "107": 1690,
      "Ġ30": 1691,
      "Ġneural": 1692,
      "ĠAP": 1693,
      "right": 1694,
      "max": 1695,
      "Ġcontinu": 1696,
      "HAP": 1697,
      "Ġweight": 1698,
      "99": 1699,
      "Sc": 1700,
      "rans": 1701,
      "Ġtion": 1702,
      "ystems": 1703,
      "itle": 1704,
      "comput": 1705,
      "tml": 1706,
      "ters": 1707,
      "ĠWh": 1708,
      "67": 1709,
      "direct": 1710,
      "view": 1711,
      "Ġassoci": 1712,
      "ane": 1713,
      "Ġproperty": 1714,
      "inary": 1715,
      "Ġversion": 1716,
      "ke": 1717,
      "econd": 1718,
      "Ġreason": 1719,
      "vant": 1720,
      "Ġlast": 1721,
      "Ġcap": 1722,
      "dis": 1723,
      "ears": 1724,
      "ols": 1725,
      "program": 1726,
      "when": 1727,
      "Ġmoment": 1728,
      "lass": 1729,
      "opt": 1730,
      "Ġelectron": 1731,
      "inally": 1732,
      "Ġmechan": 1733,
      "ĠAr": 1734,
      "empt": 1735,
      "Ġsym": 1736,
      "Ġmode": 1737,
      "Ġlanguage": 1738,
      "Ġcontext": 1739,
      "ember": 1740,
      "urther": 1741,
      "Ġlayer": 1742,
      "vectors": 1743,
      "Ġ...": 1744,
      "ries": 1745,
      "Ġquant": 1746,
      "Ġpost": 1747,
      "edi": 1748,
      "etter": 1749,
      "plit": 1750,
      "Ġposition": 1751,
      "ma": 1752,
      "lection": 1753,
      "incl": 1754,
      "ercise": 1755,
      "Ġsince": 1756,
      "Ġnetworks": 1757,
      "ee": 1758,
      "Ġoperation": 1759,
      "head": 1760,
      "Ġhelp": 1761,
      "Ġcontains": 1762,
      "sthat": 1763,
      "based": 1764,
      "ĠInt": 1765,
      "cho": 1766,
      "Ġclasses": 1767,
      "Ġing": 1768,
      "indow": 1769,
      "Ġspecial": 1770,
      "Ġchanges": 1771,
      "Ġear": 1772,
      "EN": 1773,
      "ĠIm": 1774,
      "plication": 1775,
      "exp": 1776,
      "Ġfew": 1777,
      "Ġloop": 1778,
      "'s": 1779,
      "Ġproject": 1780,
      "Ġcomplex": 1781,
      "ense": 1782,
      "Ġï¿½ï¿½": 1783,
      "Ġassign": 1784,
      "ynam": 1785,
      "most": 1786,
      "kernel": 1787,
      "appro": 1788,
      "list": 1789,
      "izing": 1790,
      "Ġknown": 1791,
      "ĠSee": 1792,
      "Ġthreads": 1793,
      "result": 1794,
      "Ġself": 1795,
      "Ġnames": 1796,
      "aving": 1797,
      "Figure": 1798,
      "Ġfree": 1799,
      "Ġsay": 1800,
      "Ġsend": 1801,
      "37": 1802,
      "til": 1803,
      "Ġ24": 1804,
      "Ġsol": 1805,
      "otential": 1806,
      "Cont": 1807,
      "ING": 1808,
      "Ġreturns": 1809,
      "Ġresults": 1810,
      "ires": 1811,
      "ruction": 1812,
      "Ġcomplete": 1813,
      "ert": 1814,
      "ception": 1815,
      "Ġ100": 1816,
      "Ġref": 1817,
      "agnetic": 1818,
      "Ġthose": 1819,
      "Ġcache": 1820,
      "Ġder": 1821,
      "Ġperformance": 1822,
      "Ġprevious": 1823,
      "Ġconfigur": 1824,
      "size": 1825,
      "itt": 1826,
      "98": 1827,
      "ivid": 1828,
      "Ġobtain": 1829,
      "60": 1830,
      "ches": 1831,
      "off": 1832,
      "vironment": 1833,
      "EM": 1834,
      "Ġtimes": 1835,
      "Ġseveral": 1836,
      "input": 1837,
      "Ġlock": 1838,
      "Ġequal": 1839,
      "now": 1840,
      "Ġ27": 1841,
      "perform": 1842,
      "NIX": 1843,
      "ape": 1844,
      "Ġport": 1845,
      "ET": 1846,
      "ĠWith": 1847,
      "tes": 1848,
      "Ġkind": 1849,
      "(),": 1850,
      "lay": 1851,
      "Ġcannot": 1852,
      "yper": 1853,
      "Ġoption": 1854,
      "andthe": 1855,
      "Ġkeep": 1856,
      "Ġargument": 1857,
      "has": 1858,
      "Ġcreated": 1859,
      "Ġmakes": 1860,
      "Ġut": 1861,
      "Ġbr": 1862,
      "Ġleft": 1863,
      "Ġeither": 1864,
      "Ġcorresponding": 1865,
      "Ġ</": 1866,
      "ises": 1867,
      "fl": 1868,
      "Ġsur": 1869,
      "Ġoperations": 1870,
      "br": 1871,
      "(\"": 1872,
      "action": 1873,
      "ique": 1874,
      "Ġapplications": 1875,
      "att": 1876,
      "Ġalloc": 1877,
      "ĠHere": 1878,
      "onthe": 1879,
      "ins": 1880,
      "ensity": 1881,
      "Ġ40": 1882,
      "inci": 1883,
      "Ġsit": 1884,
      "90": 1885,
      "ĠDe": 1886,
      "tring": 1887,
      "ecess": 1888,
      "AN": 1889,
      "ained": 1890,
      "Ġcomponents": 1891,
      "yle": 1892,
      "Ġturn": 1893,
      "Ġredu": 1894,
      "Ġfollows": 1895,
      "py": 1896,
      "ram": 1897,
      "irc": 1898,
      "LS": 1899,
      "izes": 1900,
      "Ġapproxim": 1901,
      "run": 1902,
      "Ġbound": 1903,
      "Ġhead": 1904,
      "Ġprovide": 1905,
      "Ġterms": 1906,
      "Ġlines": 1907,
      "eue": 1908,
      "nal": 1909,
      "tom": 1910,
      "Ġdone": 1911,
      "ention": 1912,
      "illustr": 1913,
      "Ġuseful": 1914,
      "Ġforce": 1915,
      "Ġcourse": 1916,
      "Ġpower": 1917,
      "html": 1918,
      "ĠThat": 1919,
      "Ġfields": 1920,
      "IC": 1921,
      "Ġroot": 1922,
      "ands": 1923,
      "Ġsimply": 1924,
      "Ġhapp": 1925,
      "ng": 1926,
      "Ġmodule": 1927,
      "Ġnumbers": 1928,
      "ank": 1929,
      "omain": 1930,
      "ication": 1931,
      "raw": 1932,
      "forthe": 1933,
      "Ġwords": 1934,
      "Ġmade": 1935,
      "aset": 1936,
      "book": 1937,
      "Ġvis": 1938,
      "plicit": 1939,
      "equ": 1940,
      "amed": 1941,
      "ĠNote": 1942,
      "apping": 1943,
      "atic": 1944,
      "object": 1945,
      "Ġcalls": 1946,
      "ĠExample": 1947,
      "ĠUsing": 1948,
      "current": 1949,
      "Ġlight": 1950,
      "Ġindex": 1951,
      "problem": 1952,
      "using": 1953,
      "plied": 1954,
      "Ġgradient": 1955,
      "ody": 1956,
      "Ġscal": 1957,
      "ĠBy": 1958,
      "Ġactiv": 1959,
      "Ġcertain": 1960,
      "Ġbl": 1961,
      "->": 1962,
      "Ġless": 1963,
      "gether": 1964,
      "address": 1965,
      "ayes": 1966,
      "mit": 1967,
      "Ġrespect": 1968,
      "Ġspecify": 1969,
      "ving": 1970,
      "Ġlibr": 1971,
      "Ġexper": 1972,
      "Ġworking": 1973,
      "Ġfound": 1974,
      "Ġsl": 1975,
      "mod": 1976,
      "Ġdefine": 1977,
      "\">": 1978,
      "co": 1979,
      "Ġrout": 1980,
      "Ġevent": 1981,
      "verse": 1982,
      "47": 1983,
      "45": 1984,
      "eo": 1985,
      "Ġrepl": 1986,
      "bed": 1987,
      "wise": 1988,
      "Ġhardware": 1989,
      "position": 1990,
      "Ġstatement": 1991,
      "Ġallows": 1992,
      "Ġregular": 1993,
      "ering": 1994,
      "ĠNot": 1995,
      "Ġbit": 1996,
      "Ġsearch": 1997,
      "ired": 1998,
      "65": 1999,
      "Ġalready": 2000,
      "work": 2001,
      "esign": 2002,
      "Ġlater": 2003,
      "Ġunit": 2004,
      "each": 2005,
      "li": 2006,
      "like": 2007,
      "39": 2008,
      "Ġinstead": 2009,
      "ms": 2010,
      "Ġformat": 2011,
      "Ġplace": 2012,
      "ifier": 2013,
      "values": 2014,
      "call": 2015,
      "Ġmon": 2016,
      "LL": 2017,
      "Ġloss": 2018,
      "Ġ50": 2019,
      "Ġ22": 2020,
      "Section": 2021,
      "ĠThus": 2022,
      "bject": 2023,
      "Ġcount": 2024,
      "ĠCre": 2025,
      "Ġcent": 2026,
      "ares": 2027,
      "files": 2028,
      "Ġexact": 2029,
      "ES": 2030,
      "rep": 2031,
      "Ġwait": 2032,
      "reen": 2033,
      "Ġcur": 2034,
      "ĠEach": 2035,
      "top": 2036,
      "86": 2037,
      "learning": 2038,
      "tal": 2039,
      "Ġwritten": 2040,
      "ixed": 2041,
      "RL": 2042,
      "bal": 2043,
      "Ġfrequ": 2044,
      "abase": 2045,
      "Ġcorrect": 2046,
      "ĠCont": 2047,
      "ken": 2048,
      "val": 2049,
      "Ġable": 2050,
      "ething": 2051,
      "ĠUser": 2052,
      "just": 2053,
      "edby": 2054,
      "Ġrele": 2055,
      "sequ": 2056,
      "Ġdon": 2057,
      "gular": 2058,
      "Ġbased": 2059,
      "ler": 2060,
      "cent": 2061,
      "Ġstates": 2062,
      "volution": 2063,
      "eto": 2064,
      "comp": 2065,
      "hip": 2066,
      "Ġgive": 2067,
      "ĠSup": 2068,
      "ĠHTML": 2069,
      "Ġbuil": 2070,
      "Ġintegr": 2071,
      "ds": 2072,
      "no": 2073,
      "Ġwave": 2074,
      "ging": 2075,
      "View": 2076,
      "97": 2077,
      "Ġrather": 2078,
      "Ġperm": 2079,
      "ably": 2080,
      "Ġtor": 2081,
      "Ġbegin": 2082,
      "Ġ21": 2083,
      "Ġunderstand": 2084,
      "ysis": 2085,
      "Ġusually": 2086,
      "Ġitself": 2087,
      "ĠAt": 2088,
      ".ï¿½": 2089,
      "36": 2090,
      "Ġabove": 2091,
      "omet": 2092,
      "HAPTER": 2093,
      "erial": 2094,
      "ustom": 2095,
      "Ġpredict": 2096,
      "Ġpassword": 2097,
      "Ġsignal": 2098,
      "31": 2099,
      "This": 2100,
      "Ġhidden": 2101,
      "Ġmark": 2102,
      "heduling": 2103,
      "Ġindic": 2104,
      "AM": 2105,
      "aves": 2106,
      "Ġcolumn": 2107,
      "Ġscript": 2108,
      "Ġpract": 2109,
      "Ġdescribed": 2110,
      "Ġintrodu": 2111,
      "Ġsecurity": 2112,
      "Ġphysical": 2113,
      "EE": 2114,
      "bu": 2115,
      "isf": 2116,
      "ĠProgram": 2117,
      "ĠAPI": 2118,
      "itch": 2119,
      "sin": 2120,
      "Ġ................................": 2121,
      "anc": 2122,
      "Ġmult": 2123,
      "Ġamount": 2124,
      "map": 2125,
      "Ġconfiguration": 2126,
      "Ġlabel": 2127,
      "prob": 2128,
      "Ġinterest": 2129,
      "itecture": 2130,
      "ival": 2131,
      "orage": 2132,
      "Ġvol": 2133,
      "Ġinvok": 2134,
      "bug": 2135,
      "ons": 2136,
      "Ġprograms": 2137,
      "Ġrece": 2138,
      "ĠPage": 2139,
      "Ġaround": 2140,
      "Ġlimit": 2141,
      "verage": 2142,
      "ĠBecause": 2143,
      "Ġevalu": 2144,
      "ogn": 2145,
      "CT": 2146,
      "Ġpointer": 2147,
      "Ġbehav": 2148,
      "Ġdiffere": 2149,
      "ĠProcess": 2150,
      "trans": 2151,
      "orem": 2152,
      "Ġprovides": 2153,
      ",ï¿½": 2154,
      "Ġprivate": 2155,
      "erson": 2156,
      "ides": 2157,
      "PT": 2158,
      "Ġcontent": 2159,
      "spec": 2160,
      "tun": 2161,
      "graph": 2162,
      "Ġupdate": 2163,
      "alle": 2164,
      "95": 2165,
      "new": 2166,
      "Ġbuffer": 2167,
      "Ġtakes": 2168,
      "Ġproperties": 2169,
      "eople": 2170,
      "gative": 2171,
      "Ġproblems": 2172,
      "Ġbrowser": 2173,
      "ĠPM": 2174,
      "Ġcalcul": 2175,
      "sert": 2176,
      "Ġhowever": 2177,
      "Ġinside": 2178,
      "Ġconstruct": 2179,
      "Ġbetter": 2180,
      "comple": 2181,
      "linear": 2182,
      "Ġautom": 2183,
      "Ġsqu": 2184,
      "Ġcopy": 2185,
      "Ġexpression": 2186,
      "ittle": 2187,
      "Ġnormal": 2188,
      "Ġstack": 2189,
      "sign": 2190,
      "Ġuntil": 2191,
      "imilar": 2192,
      "ture": 2193,
      "Ġdecl": 2194,
      "Ġcomputer": 2195,
      "Script": 2196,
      "write": 2197,
      "hand": 2198,
      "tocol": 2199,
      "ĠGaussian": 2200,
      "Ġmeasure": 2201,
      "Ġassociated": 2202,
      "test": 2203,
      "estion": 2204,
      "Ġtoo": 2205,
      "Ġequation": 2206,
      "Ġhttp": 2207,
      "Ġinterrupt": 2208,
      "ifies": 2209,
      "Ġelse": 2210,
      "Ġpresent": 2211,
      "Con": 2212,
      "pass": 2213,
      "Ġfour": 2214,
      "also": 2215,
      "Ġdiff": 2216,
      "Ġneeded": 2217,
      "Ġfo": 2218,
      "Ġservice": 2219,
      "Ġcommands": 2220,
      "ĠPython": 2221,
      "Ġhost": 2222,
      "Ġsets": 2223,
      "igher": 2224,
      "Ġexpress": 2225,
      "55": 2226,
      "Ġitem": 2227,
      "Ġclient": 2228,
      "Ġassum": 2229,
      "cle": 2230,
      "prov": 2231,
      "Ġ28": 2232,
      "desc": 2233,
      "feren": 2234,
      "Ġdevices": 2235,
      "ĠDis": 2236,
      "ann": 2237,
      "Ġmot": 2238,
      "Ġsequence": 2239,
      "Ġdriver": 2240,
      "Ġflag": 2241,
      "space": 2242,
      "Ġderiv": 2243,
      "code": 2244,
      "org": 2245,
      "Ġexpl": 2246,
      "();": 2247,
      "Ġidea": 2248,
      "44": 2249,
      "Ġtarget": 2250,
      "Ġpotential": 2251,
      "Ġapply": 2252,
      "aster": 2253,
      "hemat": 2254,
      "ounter": 2255,
      "met": 2256,
      "veloc": 2257,
      "Ġoriginal": 2258,
      "Ġmet": 2259,
      "Ġaction": 2260,
      "70": 2261,
      "imal": 2262,
      "Ġrequired": 2263,
      "Ġbest": 2264,
      "Ġsample": 2265,
      "icro": 2266,
      "ories": 2267,
      "Ġcolor": 2268,
      "thing": 2269,
      "po": 2270,
      "parameters": 2271,
      "isthe": 2272,
      "Ġcar": 2273,
      "Ġtogether": 2274,
      "fr": 2275,
      "self": 2276,
      "ĠSince": 2277,
      "Ġwho": 2278,
      "define": 2279,
      "Ġworks": 2280,
      "Ġsuper": 2281,
      "istics": 2282,
      "Ġwindow": 2283,
      "68": 2284,
      "case": 2285,
      "son": 2286,
      "igen": 2287,
      "det": 2288,
      "num": 2289,
      "Ġhad": 2290,
      "ĠSystem": 2291,
      "dimensional": 2292,
      "Ġlength": 2293,
      "Ġbase": 2294,
      "ĠLearning": 2295,
      "az": 2296,
      "Ġchild": 2297,
      "Ġbackground": 2298,
      "43": 2299,
      "iter": 2300,
      "ĠFirst": 2301,
      "fact": 2302,
      "Ġtell": 2303,
      "ished": 2304,
      "Ġconn": 2305,
      "sof": 2306,
      "Ġscreen": 2307,
      "Ġleast": 2308,
      "PC": 2309,
      "output": 2310,
      "Ġoperator": 2311,
      "access": 2312,
      "state": 2313,
      "oder": 2314,
      "Ġcommun": 2315,
      "Ġcharacters": 2316,
      "medi": 2317,
      "Ġden": 2318,
      "network": 2319,
      "ceed": 2320,
      "Ġimplementation": 2321,
      "distribution": 2322,
      "Ġimages": 2323,
      "IG": 2324,
      "ĠBe": 2325,
      "Ġsent": 2326,
      "Ġcases": 2327,
      "Ġvoid": 2328,
      "Ġdirection": 2329,
      "It": 2330,
      "ock": 2331,
      "Ġsem": 2332,
      "erior": 2333,
      "Ġpi": 2334,
      "Ġlaw": 2335,
      "itis": 2336,
      "Ġeasy": 2337,
      "iment": 2338,
      "Ġdirectly": 2339,
      "Ġconver": 2340,
      "ird": 2341,
      "Ġrule": 2342,
      "Ġvarious": 2343,
      "Ġstream": 2344,
      "ended": 2345,
      "Ġarguments": 2346,
      "Ġindepend": 2347,
      "])": 2348,
      "roid": 2349,
      "Ġdatabase": 2350,
      "ecessary": 2351,
      "els": 2352,
      "ores": 2353,
      "alse": 2354,
      "Ġentry": 2355,
      "57": 2356,
      "sol": 2357,
      "Ġbox": 2358,
      "ĠThey": 2359,
      "than": 2360,
      "conf": 2361,
      "Ġ--": 2362,
      "ences": 2363,
      "Ġentire": 2364,
      "Ġmarg": 2365,
      "ĠIN": 2366,
      "fromthe": 2367,
      "weight": 2368,
      "Ġtotal": 2369,
      "Ġ((": 2370,
      "Ġregression": 2371,
      "If": 2372,
      "training": 2373,
      "Ġillustr": 2374,
      "Ġmatch": 2375,
      "allel": 2376,
      "SD": 2377,
      "Ġenvironment": 2378,
      "Ar": 2379,
      "rain": 2380,
      "Chapter": 2381,
      "called": 2382,
      "Ġspecified": 2383,
      "CPU": 2384,
      "Ġcirc": 2385,
      "Ġgoing": 2386,
      "alloc": 2387,
      "Ġalong": 2388,
      "inite": 2389,
      "Ġrelative": 2390,
      "ĠInst": 2391,
      ",...,": 2392,
      "achines": 2393,
      "sib": 2394,
      "ty": 2395,
      "ister": 2396,
      "Ġarea": 2397,
      "Ġobserv": 2398,
      "tot": 2399,
      "aries": 2400,
      "Ġfinal": 2401,
      "ĠEq": 2402,
      "Ġprogramming": 2403,
      "ged": 2404,
      "Ġblocks": 2405,
      "sub": 2406,
      "Ġthink": 2407,
      "ah": 2408,
      "ouble": 2409,
      "Ġsymb": 2410,
      "istr": 2411,
      "umberof": 2412,
      "rem": 2413,
      "ĠConsider": 2414,
      "DE": 2415,
      "Ġens": 2416,
      "pen": 2417,
      "Ġthough": 2418,
      "ission": 2419,
      "velocity": 2420,
      "Ġfar": 2421,
      "Ġbre": 2422,
      "Ġnode": 2423,
      "length": 2424,
      "Ġfilesystem": 2425,
      "Ġenough": 2426,
      "icult": 2427,
      "Ġdefinition": 2428,
      "Ġrow": 2429,
      "Ġcharge": 2430,
      "lier": 2431,
      "Ġnamed": 2432,
      "example": 2433,
      "Ġstatic": 2434,
      "Ġsitu": 2435,
      ")+": 2436,
      "lobal": 2437,
      "aced": 2438,
      "Ġinstall": 2439,
      "Ġbuild": 2440,
      "field": 2441,
      "cons": 2442,
      "Ġdescriptor": 2443,
      "nown": 2444,
      "ĠExercise": 2445,
      "gment": 2446,
      "Ġdetails": 2447,
      "tract": 2448,
      "Ġneeds": 2449,
      "Ġparent": 2450,
      "Ġmove": 2451,
      "Ġsuccess": 2452,
      "emon": 2453,
      "54": 2454,
      "Ġpair": 2455,
      "ĠRes": 2456,
      "umm": 2457,
      "exec": 2458,
      "Ġmass": 2459,
      "Ġ/*": 2460,
      "Ġclust": 2461,
      "Ġaccount": 2462,
      "Ġstored": 2463,
      "apro": 2464,
      "Ġsimpl": 2465,
      "div": 2466,
      "ĠTherefore": 2467,
      "ework": 2468,
      "atically": 2469,
      "ĠUNIX": 2470,
      "go": 2471,
      "')": 2472,
      "ĠWeb": 2473,
      "erved": 2474,
      "Ġsomething": 2475,
      "count": 2476,
      "algorithm": 2477,
      "Ġexecut": 2478,
      "Ġmaximum": 2479,
      "Ġlarg": 2480,
      "Ġinvol": 2481,
      "ession": 2482,
      "xample": 2483,
      "Ġoptions": 2484,
      "Ġdistance": 2485,
      "Ġiter": 2486,
      "Ġlittle": 2487,
      "ĠSome": 2488,
      "lex": 2489,
      "Ġways": 2490,
      "abilities": 2491,
      "Ġonce": 2492,
      "ĠComm": 2493,
      "ording": 2494,
      "01": 2495,
      "raction": 2496,
      "thatthe": 2497,
      "Ġ37": 2498,
      "Ġshort": 2499,
      "ampling": 2500,
      "Ġdiscussed": 2501,
      "given": 2502,
      "posed": 2503,
      "Ġexecution": 2504,
      "Ġmagnetic": 2505,
      "ĠURL": 2506,
      "imple": 2507,
      "Ġspeed": 2508,
      "Ġbehavior": 2509,
      "AD": 2510,
      "AS": 2511,
      "Ġside": 2512,
      "Ġfull": 2513,
      "Ġappear": 2514,
      "ption": 2515,
      "about": 2516,
      "error": 2517,
      "aut": 2518,
      "Ġtherefore": 2519,
      "dec": 2520,
      "Ġ]": 2521,
      "Ġprocedure": 2522,
      "Ġmanager": 2523,
      "serv": 2524,
      "Ġhandle": 2525,
      "por": 2526,
      "Ġfactor": 2527,
      "Ġfail": 2528,
      "apped": 2529,
      "ivalent": 2530,
      "aj": 2531,
      "iled": 2532,
      "Ġtree": 2533,
      "Ġpur": 2534,
      "acy": 2535,
      "ivity": 2536,
      "Ġlikelihood": 2537,
      "ĠSuppose": 2538,
      "ror": 2539,
      "Ġmem": 2540,
      "ecomes": 2541,
      "resents": 2542,
      "Ġimpro": 2543,
      "ĠBayes": 2544,
      "05": 2545,
      "atisf": 2546,
      "priate": 2547,
      "04": 2548,
      "Ġ32": 2549,
      "Ġalgorithms": 2550,
      "Ġplay": 2551,
      "Ġseparate": 2552,
      "ars": 2553,
      "unc": 2554,
      "canbe": 2555,
      "Ġunits": 2556,
      "Ġavoid": 2557,
      "Ġdifference": 2558,
      "Ġjob": 2559,
      "ĠFinally": 2560,
      "Ġpip": 2561,
      "ĠRec": 2562,
      "94": 2563,
      "Ġcaus": 2564,
      "Ġresources": 2565,
      "ationship": 2566,
      "withthe": 2567,
      "Ġbasic": 2568,
      "ï¿½(": 2569,
      "Ġgives": 2570,
      "Ġshared": 2571,
      "Ġwriting": 2572,
      "Ġincluding": 2573,
      "asthe": 2574,
      "Ġrequests": 2575,
      "Ġtheory": 2576,
      "Ġprom": 2577,
      "Ġclear": 2578,
      "allow": 2579,
      "ĠPer": 2580,
      "====": 2581,
      "box": 2582,
      "CE": 2583,
      "feat": 2584,
      "anag": 2585,
      "Ġthings": 2586,
      "Ġrate": 2587,
      "Ġax": 2588,
      "ĠIntern": 2589,
      "ĠAlthough": 2590,
      "Ġthus": 2591,
      "plate": 2592,
      "Ġutility": 2593,
      "87": 2594,
      "ivers": 2595,
      "Ġhyper": 2596,
      "Ġhold": 2597,
      "Ġtre": 2598,
      "Ġconne": 2599,
      "ĠData": 2600,
      "ĠSet": 2601,
      "Ġrefer": 2602,
      "06": 2603,
      "Ġclose": 2604,
      "Ġpriority": 2605,
      "ele": 2606,
      "stat": 2607,
      "Ġrange": 2608,
      "Ġ35": 2609,
      "Ġsche": 2610,
      "ï¿½.": 2611,
      "Ġcrit": 2612,
      "Ġadmin": 2613,
      "ients": 2614,
      "Ġ_": 2615,
      "vised": 2616,
      "Ġvar": 2617,
      "Ġret": 2618,
      "Ġrights": 2619,
      "Ġregion": 2620,
      "Ġdomain": 2621,
      "ift": 2622,
      "ificant": 2623,
      "need": 2624,
      "ination": 2625,
      "Ġmessages": 2626,
      "label": 2627,
      "Ġbec": 2628,
      "ĠCSS": 2629,
      "100": 2630,
      "rict": 2631,
      "Ġpreced": 2632,
      "Ġmaking": 2633,
      "asing": 2634,
      "cing": 2635,
      "ush": 2636,
      "implement": 2637,
      "Ġequations": 2638,
      "Ġrequires": 2639,
      "ness": 2640,
      "px": 2641,
      "init": 2642,
      "UR": 2643,
      "Ġpop": 2644,
      "Ġadded": 2645,
      "nc": 2646,
      "Ġtorch": 2647,
      "ump": 2648,
      "olicy": 2649,
      "Ġexpect": 2650,
      "Ġdoesn": 2651,
      ".(": 2652,
      "lot": 2653,
      "Ġpeople": 2654,
      "Ġmechanism": 2655,
      "Ġwhose": 2656,
      "Ġexactly": 2657,
      "onal": 2658,
      "aring": 2659,
      "Ġbinary": 2660,
      "Ġvelocity": 2661,
      "inate": 2662,
      "edin": 2663,
      "--------": 2664,
      "Ġmomentum": 2665,
      "Ġ==": 2666,
      "ynt": 2667,
      "oring": 2668,
      "inear": 2669,
      "Ġlists": 2670,
      "92": 2671,
      "Ġcustom": 2672,
      "Ġhigher": 2673,
      "imization": 2674,
      "VM": 2675,
      "Ġold": 2676,
      "Ġwidth": 2677,
      "EC": 2678,
      "bound": 2679,
      "mer": 2680,
      "logy": 2681,
      "Ġattribute": 2682,
      "wew": 2683,
      "iques": 2684,
      "ĠJavaScript": 2685,
      "Ġconcept": 2686,
      "crete": 2687,
      "faces": 2688,
      "ĠCl": 2689,
      "Ġcost": 2690,
      "pages": 2691,
      "Ġlibrary": 2692,
      "Data": 2693,
      "OM": 2694,
      "gan": 2695,
      "text": 2696,
      "42": 2697,
      "Ġdeep": 2698,
      "Ġsure": 2699,
      "entially": 2700,
      "ĠLo": 2701,
      "ploy": 2702,
      "fs": 2703,
      "ternative": 2704,
      "ements": 2705,
      "((": 2706,
      "may": 2707,
      "ĠAfter": 2708,
      "bec": 2709,
      "ious": 2710,
      "Ġexcept": 2711,
      "Ġelectric": 2712,
      "ĠFile": 2713,
      "Ġrecord": 2714,
      "ias": 2715,
      "Ġhaving": 2716,
      "Ġdisc": 2717,
      "etc": 2718,
      "ral": 2719,
      "91": 2720,
      "Ġdynam": 2721,
      "ĠCopy": 2722,
      "ks": 2723,
      "Ġdisplays": 2724,
      "Ġ*/": 2725,
      "Ġlead": 2726,
      "const": 2727,
      "nder": 2728,
      "thent": 2729,
      "Ġresource": 2730,
      "Ġaverage": 2731,
      "dev": 2732,
      "alf": 2733,
      "Ġconc": 2734,
      "active": 2735,
      "Ġworld": 2736,
      "Ġbutton": 2737,
      "Ġadditional": 2738,
      "forward": 2739,
      "ercises": 2740,
      "does": 2741,
      "Ġcome": 2742,
      "fully": 2743,
      "Ġdebug": 2744,
      "ience": 2745,
      "was": 2746,
      "To": 2747,
      "lying": 2748,
      "Ġred": 2749,
      "Ġtasks": 2750,
      "pace": 2751,
      "section": 2752,
      "condition": 2753,
      "following": 2754,
      "variables": 2755,
      "date": 2756,
      "illy": 2757,
      "Al": 2758,
      "ĠBook": 2759,
      "Ġboot": 2760,
      "Ġflow": 2761,
      "Ġinterpre": 2762,
      "93": 2763,
      "known": 2764,
      "ĠĠčĊ": 2765,
      "Ġarchitecture": 2766,
      "Ġthing": 2767,
      "Ġcr": 2768,
      "anced": 2769,
      "Ġ26": 2770,
      "Ġpositive": 2771,
      "Ġdid": 2772,
      "Ġseen": 2773,
      "Ġdiag": 2774,
      "Ġincludes": 2775,
      "QL": 2776,
      "Ġactually": 2777,
      "Ġvectors": 2778,
      "inciple": 2779,
      "fit": 2780,
      "ority": 2781,
      "pagation": 2782,
      "sare": 2783,
      "ĠPr": 2784,
      "Ġcompute": 2785,
      "Ġ;": 2786,
      "77": 2787,
      "tings": 2788,
      "ĠSh": 2789,
      "Ġreserved": 2790,
      "iform": 2791,
      "Ġnever": 2792,
      "Ġlayers": 2793,
      "Ġreally": 2794,
      "Ġbuilt": 2795,
      "Ġmy": 2796,
      "ĠMore": 2797,
      "Ġaddresses": 2798,
      "AH": 2799,
      "method": 2800,
      "Ġmanagement": 2801,
      "Ġreference": 2802,
      "Ġwr": 2803,
      "ains": 2804,
      "46": 2805,
      "Ġqueue": 2806,
      "well": 2807,
      "Ġstructures": 2808,
      "ope": 2809,
      "includ": 2810,
      "Ġsk": 2811,
      "Ġdensity": 2812,
      "encies": 2813,
      "Ġsort": 2814,
      "ĠInter": 2815,
      "++": 2816,
      "product": 2817,
      "41": 2818,
      "day": 2819,
      "Ġ23": 2820,
      "etic": 2821,
      "uthent": 2822,
      "Ġbus": 2823,
      "Ġmap": 2824,
      "ĠBo": 2825,
      "arily": 2826,
      "Ġcreating": 2827,
      "ges": 2828,
      "iod": 2829,
      "ĠGr": 2830,
      "Ġquantum": 2831,
      "Ġsite": 2832,
      "ĠID": 2833,
      "ĠCON": 2834,
      "ividual": 2835,
      "inc": 2836,
      "umer": 2837,
      "Ġradi": 2838,
      "ĠAnother": 2839,
      "mode": 2840,
      "aging": 2841,
      "Ġvia": 2842,
      "TP": 2843,
      "ierarch": 2844,
      "Ġdescribe": 2845,
      "learn": 2846,
      "Ad": 2847,
      "Ġansw": 2848,
      "iler": 2849,
      "ĠOS": 2850,
      "Ġposterior": 2851,
      "Ġstyle": 2852,
      "ending": 2853,
      "Ġsteps": 2854,
      "Ġpress": 2855,
      "Ġlower": 2856,
      "\"\"": 2857,
      "MA": 2858,
      "loss": 2859,
      "Ġcontaining": 2860,
      "Ġforward": 2861,
      "ensor": 2862,
      "ynchronous": 2863,
      "Ġtrain": 2864,
      "url": 2865,
      "link": 2866,
      "wecan": 2867,
      "local": 2868,
      "aken": 2869,
      "ixture": 2870,
      "ĠComput": 2871,
      "ping": 2872,
      "ĠOf": 2873,
      "aches": 2874,
      "Ġamplit": 2875,
      "Ġstud": 2876,
      "ĠObject": 2877,
      "variable": 2878,
      "Ġpackage": 2879,
      "ĠUse": 2880,
      "Ġrelated": 2881,
      "vol": 2882,
      "ulation": 2883,
      "ĠNe": 2884,
      "85": 2885,
      "Ġij": 2886,
      "Ġmoving": 2887,
      "chang": 2888,
      "Ġnegative": 2889,
      "Ġcare": 2890,
      "Ġecho": 2891,
      "Ġspin": 2892,
      "js": 2893,
      "Ġexplicit": 2894,
      "LSAH": 2895,
      "IP": 2896,
      "Ġcat": 2897,
      "Ġsetting": 2898,
      "Ġdifficult": 2899,
      "'t": 2900,
      "Ġswitch": 2901,
      "='": 2902,
      "Ġtim": 2903,
      "plies": 2904,
      "ĠPh": 2905,
      "Ġnumer": 2906,
      "would": 2907,
      "Ġnecessary": 2908,
      "into": 2909,
      "omial": 2910,
      "Ġcombin": 2911,
      "For": 2912,
      "both": 2913,
      "sand": 2914,
      "Ġbecomes": 2915,
      "ypo": 2916,
      "Ġdevelopment": 2917,
      "indb": 2918,
      "ĠULSAH": 2919,
      "Ġtests": 2920,
      "type": 2921,
      "ouse": 2922,
      "Ġremov": 2923,
      "89": 2924,
      "start": 2925,
      "Ġess": 2926,
      "defined": 2927,
      "Ġbelow": 2928,
      "istributed": 2929,
      "check": 2930,
      "many": 2931,
      "ĠEn": 2932,
      "ĠDef": 2933,
      "Ġ,...,": 2934,
      "Ġver": 2935,
      "Ġemail": 2936,
      "Ġdele": 2937,
      "ĠInc": 2938,
      "mon": 2939,
      "Ġer": 2940,
      "matrix": 2941,
      "must": 2942,
      "Ġ),": 2943,
      "ottom": 2944,
      "yntax": 2945,
      "Ġdate": 2946,
      "Ġcontents": 2947,
      "RU": 2948,
      "vex": 2949,
      "ived": 2950,
      "diction": 2951,
      "print": 2952,
      "Ġedit": 2953,
      "ĠPre": 2954,
      "ety": 2955,
      "Ġappropriate": 2956,
      "IM": 2957,
      "ifying": 2958,
      "Ġrot": 2959,
      "continu": 2960,
      "\")": 2961,
      "Ġlat": 2962,
      "ored": 2963,
      "soft": 2964,
      "Ġrepresentation": 2965,
      "zero": 2966,
      "task": 2967,
      "Ġfixed": 2968,
      "Ġissu": 2969,
      "itional": 2970,
      "gg": 2971,
      "table": 2972,
      "ï¿½)": 2973,
      "Ġbreak": 2974,
      "02": 2975,
      "Ġinf": 2976,
      "Ġframe": 2977,
      "Ġerrors": 2978,
      "Ġprovided": 2979,
      "ĠTH": 2980,
      "Ġmotion": 2981,
      "astic": 2982,
      "AB": 2983,
      "Ġ?": 2984,
      "herit": 2985,
      "Ġexist": 2986,
      "Ġbytes": 2987,
      "Ġaccept": 2988,
      "Learning": 2989,
      "ends": 2990,
      "Ġearlier": 2991,
      "show": 2992,
      "Ġdimens": 2993,
      "mean": 2994,
      "Ġdrivers": 2995,
      "step": 2996,
      "ĠSc": 2997,
      "TRO": 2998,
      "icle": 2999,
      "istent": 3000,
      "Ġrules": 3001,
      "Ġlinks": 3002,
      "ĠOther": 3003,
      "Ġruns": 3004,
      "ĠEdition": 3005,
      "().": 3006,
      "Ġtri": 3007,
      "ename": 3008,
      "ternal": 3009,
      "down": 3010,
      "hor": 3011,
      "atives": 3012,
      "Ġcy": 3013,
      "Ġapplied": 3014,
      "Ġminim": 3015,
      "Ġmaintain": 3016,
      "ology": 3017,
      "Ġfore": 3018,
      "Ġacross": 3019,
      "Ġextens": 3020,
      "different": 3021,
      "ructions": 3022,
      "mp": 3023,
      "Ġtools": 3024,
      "bythe": 3025,
      "Ġ2007": 3026,
      "ĠAndroid": 3027,
      "Ġgreat": 3028,
      "NN": 3029,
      "51": 3030,
      "Ġautomatically": 3031,
      "two": 3032,
      "Reilly": 3033,
      "atural": 3034,
      "ĠFrom": 3035,
      "Ġchoose": 3036,
      "utex": 3037,
      "acc": 3038,
      "possible": 3039,
      "ĠString": 3040,
      "ĠIII": 3041,
      "Ġoptimization": 3042,
      "Qu": 3043,
      "icular": 3044,
      "olar": 3045,
      "Ġmachines": 3046,
      "Un": 3047,
      "Ġfigure": 3048,
      "usion": 3049,
      "ident": 3050,
      "represent": 3051,
      "Ġprotocol": 3052,
      "Ġquite": 3053,
      "HP": 3054,
      "ifi": 3055,
      "http": 3056,
      "Ġstarting": 3057,
      "Ġdouble": 3058,
      "sole": 3059,
      "multi": 3060,
      "Ġwhy": 3061,
      "Ġnear": 3062,
      "vantage": 3063,
      "oto": 3064,
      "iving": 3065,
      "Ġnodes": 3066,
      "ĠCHAPTER": 3067,
      "UT": 3068,
      "Ġfam": 3069,
      "ĠAssoci": 3070,
      "bitr": 3071,
      "contain": 3072,
      "Ġattributes": 3073,
      "Ġduring": 3074,
      "Ġassert": 3075,
      "Ġquestion": 3076,
      "Ġclos": 3077,
      "they": 3078,
      "Ġadding": 3079,
      "Ġlonger": 3080,
      "Ġsm": 3081,
      "ector": 3082,
      "ĠMark": 3083,
      "info": 3084,
      "ĠMachine": 3085,
      "Controller": 3086,
      "Ġbits": 3087,
      "models": 3088,
      "Ġsurface": 3089,
      "bl": 3090,
      "Ġtool": 3091,
      "board": 3092,
      "heduler": 3093,
      "Ġlocation": 3094,
      "ĠCopyright": 3095,
      "ypothes": 3096,
      "Ġrepresents": 3097,
      "Ġanalysis": 3098,
      "ĠTrans": 3099,
      "plications": 3100,
      "Ġlikely": 3101,
      "Ġlarger": 3102,
      "Ġdetermine": 3103,
      "och": 3104,
      "Ġstorage": 3105,
      "Ġindependent": 3106,
      "alk": 3107,
      "quation": 3108,
      "Ser": 3109,
      "ref": 3110,
      "Ġang": 3111,
      "Ġassume": 3112,
      "Ġentries": 3113,
      "perature": 3114,
      "edu": 3115,
      "ĠIP": 3116,
      "ĠFl": 3117,
      "processor": 3118,
      "58": 3119,
      "elect": 3120,
      "post": 3121,
      "126": 3122,
      "raight": 3123,
      "Ġequivalent": 3124,
      "Ġeasily": 3125,
      "tim": 3126,
      "ached": 3127,
      "ĠGener": 3128,
      "Ġpartition": 3129,
      "Ġarr": 3130,
      "Ġprec": 3131,
      "Ġgenerate": 3132,
      "path": 3133,
      "earch": 3134,
      "ibility": 3135,
      "Ġwww": 3136,
      "solute": 3137,
      "We": 3138,
      "rec": 3139,
      "Ġtransform": 3140,
      "Ġpractice": 3141,
      "valid": 3142,
      "ĠOr": 3143,
      "Ġparticle": 3144,
      "include": 3145,
      "Ġresponse": 3146,
      "Ġ60": 3147,
      "Ġfurther": 3148,
      "them": 3149,
      "rite": 3150,
      "plicated": 3151,
      "ĠCreate": 3152,
      "pty": 3153,
      "ĠNew": 3154,
      "layer": 3155,
      "Ġprocessor": 3156,
      "Ġ||": 3157,
      "Ġparallel": 3158,
      "cache": 3159,
      "ĠUI": 3160,
      "Ġcontr": 3161,
      "aid": 3162,
      "sec": 3163,
      "Ġsense": 3164,
      "Ġdest": 3165,
      "ĠRead": 3166,
      "ĠNo": 3167,
      "Ġgoes": 3168,
      "Ġpiec": 3169,
      "Ġcomes": 3170,
      "rows": 3171,
      "Ġdel": 3172,
      "Ġtag": 3173,
      "ovari": 3174,
      "probability": 3175,
      "Ġconstrain": 3176,
      "Ġach": 3177,
      "image": 3178,
      "stract": 3179,
      "correspon": 3180,
      "Ġhappens": 3181,
      "orial": 3182,
      "Ġstop": 3183,
      "Ġcle": 3184,
      "ĠRem": 3185,
      "Ġgenerated": 3186,
      "processes": 3187,
      "Ġsyntax": 3188,
      "Ġdistributions": 3189,
      "Ġexperiment": 3190,
      "sl": 3191,
      "tion": 3192,
      "Ġservices": 3193,
      "find": 3194,
      "ĠPC": 3195,
      "hing": 3196,
      "ĠMost": 3197,
      "Ġtypically": 3198,
      "parameter": 3199,
      "Ġ__": 3200,
      "ped": 3201,
      "aper": 3202,
      "under": 3203,
      "Ġrelationship": 3204,
      "Ġterminal": 3205,
      "61": 3206,
      "etimes": 3207,
      "Ġweights": 3208,
      "Ġsquare": 3209,
      "acement": 3210,
      "Ġrecogn": 3211,
      "ENT": 3212,
      "String": 3213,
      "ĠOpen": 3214,
      "([": 3215,
      "Ġproport": 3216,
      "Ġestimate": 3217,
      "ret": 3218,
      "Ġexecute": 3219,
      "Ġchoice": 3220,
      "hard": 3221,
      "ĠLog": 3222,
      "ues": 3223,
      "Ġofthe": 3224,
      "operating": 3225,
      "Ġbecome": 3226,
      "disk": 3227,
      "isnot": 3228,
      "oding": 3229,
      "Ġ80": 3230,
      "Ġflo": 3231,
      "Ġthird": 3232,
      "systems": 3233,
      "ategy": 3234,
      "epend": 3235,
      "acing": 3236,
      "abil": 3237,
      "mail": 3238,
      "Ġcop": 3239,
      "ĠNetwork": 3240,
      "Ġtransl": 3241,
      "49": 3242,
      "olean": 3243,
      "Ġvolume": 3244,
      "resh": 3245,
      "Ġsys": 3246,
      "Ġfit": 3247,
      "ND": 3248,
      "Ġinit": 3249,
      "izer": 3250,
      "Ġinteresting": 3251,
      "Ġefficient": 3252,
      "ĠSer": 3253,
      "assum": 3254,
      "Ġcreates": 3255,
      "xy": 3256,
      "Ġben": 3257,
      "bas": 3258,
      "fil": 3259,
      "Ġ\\": 3260,
      "change": 3261,
      "version": 3262,
      "Int": 3263,
      "Ġeigen": 3264,
      "ĠMany": 3265,
      "Ġscheduling": 3266,
      "Ġinternal": 3267,
      "Ġtemplate": 3268,
      "ferences": 3269,
      "aim": 3270,
      "anguages": 3271,
      "Ġslow": 3272,
      "Ġconvolution": 3273,
      "Ġ47": 3274,
      "play": 3275,
      "istory": 3276,
      "Ġindividual": 3277,
      "super": 3278,
      "Component": 3279,
      "uman": 3280,
      "Ġversions": 3281,
      ")]": 3282,
      "look": 3283,
      "ones": 3284,
      "Ġsatisf": 3285,
      "ĠFunction": 3286,
      "inte": 3287,
      "cussion": 3288,
      "leep": 3289,
      "Ġfrequency": 3290,
      "ining": 3291,
      "Ġaccur": 3292,
      "essage": 3293,
      "Ġtrack": 3294,
      "what": 3295,
      "Ġattempt": 3296,
      "ĠOper": 3297,
      "wait": 3298,
      "Ġcross": 3299,
      "ii": 3300,
      "oud": 3301,
      "Ġclick": 3302,
      "random": 3303,
      "ĠDo": 3304,
      "ypes": 3305,
      "An": 3306,
      "oll": 3307,
      "ĠRun": 3308,
      "anal": 3309,
      "shot": 3310,
      "Ġdepends": 3311,
      "return": 3312,
      "procedure": 3313,
      "ync": 3314,
      "Ġreading": 3315,
      "ĠModel": 3316,
      "Ġapproximation": 3317,
      "functions": 3318,
      "69": 3319,
      "ĠOnce": 3320,
      "wes": 3321,
      "Ġimplemented": 3322,
      "BSD": 3323,
      "ED": 3324,
      "width": 3325,
      "Ġprintf": 3326,
      "\");": 3327,
      "gs": 3328,
      "Ġcell": 3329,
      "Ġdraw": 3330,
      "Ġmapping": 3331,
      "Ġhome": 3332,
      "server": 3333,
      "Ġpix": 3334,
      "Ġmount": 3335,
      "Ġnp": 3336,
      "sum": 3337,
      "Ġglobal": 3338,
      "ĠNext": 3339,
      "obtain": 3340,
      "tra": 3341,
      "Ġsituation": 3342,
      "IF": 3343,
      "uses": 3344,
      "uture": 3345,
      "Ġadministr": 3346,
      "aa": 3347,
      "Ġsession": 3348,
      "ey": 3349,
      "ĠTr": 3350,
      "los": 3351,
      "ĠInternet": 3352,
      "84": 3353,
      "body": 3354,
      "Ġhis": 3355,
      "ledge": 3356,
      "Ġsometimes": 3357,
      "Ġperson": 3358,
      "stream": 3359,
      "Ġ64": 3360,
      "sidered": 3361,
      "Ġcontinue": 3362,
      "Ġmag": 3363,
      "Ġinteger": 3364,
      "some": 3365,
      "respect": 3366,
      "ĠDec": 3367,
      "mediately": 3368,
      "ĠClass": 3369,
      "structure": 3370,
      "orth": 3371,
      "inates": 3372,
      "Ġdig": 3373,
      "Ġask": 3374,
      "Ġsequ": 3375,
      "Ġcharg": 3376,
      "index": 3377,
      "Ġnorm": 3378,
      "Ġparts": 3379,
      "Ġprinciple": 3380,
      "Ġservers": 3381,
      "ĠSpec": 3382,
      "information": 3383,
      "ental": 3384,
      "ems": 3385,
      "upport": 3386,
      "Ġart": 3387,
      "ysical": 3388,
      "Ġdetail": 3389,
      "aged": 3390,
      "adding": 3391,
      "ĠAC": 3392,
      "Ġhappen": 3393,
      "Ġexception": 3394,
      "105": 3395,
      "Ġsumm": 3396,
      "number": 3397,
      "escript": 3398,
      "Ġproper": 3399,
      "ateg": 3400,
      "ĠBu": 3401,
      "ĠQu": 3402,
      "Ġfocus": 3403,
      "ula": 3404,
      "performance": 3405,
      "etch": 3406,
      "Ġsignificant": 3407,
      "ict": 3408,
      "avig": 3409,
      "Ġmaterial": 3410,
      "Ġactual": 3411,
      "rc": 3412,
      "Ġmole": 3413,
      "ĠMy": 3414,
      "ATION": 3415,
      "Ġchanged": 3416,
      "arant": 3417,
      "train": 3418,
      "Ġeasier": 3419,
      "Ap": 3420,
      "evalu": 3421,
      "Ġclassification": 3422,
      "81": 3423,
      "attern": 3424,
      "sequence": 3425,
      "ummary": 3426,
      "Ġshe": 3427,
      "Ġvariance": 3428,
      "Ġlooks": 3429,
      "ĠWhile": 3430,
      "82": 3431,
      "ĠTitle": 3432,
      "BM": 3433,
      "ren": 3434,
      "users": 3435,
      "Ġexisting": 3436,
      "Ġcontroller": 3437,
      "Ġexpected": 3438,
      "Ġcause": 3439,
      "Ġtoken": 3440,
      "Ġstatus": 3441,
      "Ġfin": 3442,
      "Ġnet": 3443,
      "Ġconditional": 3444,
      "orld": 3445,
      "ĠAdd": 3446,
      "Ġempty": 3447,
      "Process": 3448,
      "Bo": 3449,
      "ising": 3450,
      "NS": 3451,
      "Ġnull": 3452,
      "ructure": 3453,
      "Ġlayout": 3454,
      "As": 3455,
      "Ġauto": 3456,
      "Ġfilter": 3457,
      "ĠBayesian": 3458,
      "ĠAssociates": 3459,
      "ison": 3460,
      "quest": 3461,
      "ĠManag": 3462,
      "produ": 3463,
      "key": 3464,
      "igm": 3465,
      "rypt": 3466,
      "83": 3467,
      "Of": 3468,
      "Ġhierarch": 3469,
      "Ġexecuted": 3470,
      "agr": 3471,
      "Ġevents": 3472,
      "search": 3473,
      "ĠWork": 3474,
      "Ġmatter": 3475,
      "Ġwide": 3476,
      "Ġmaj": 3477,
      "Ġyears": 3478,
      "che": 3479,
      "Ġquick": 3480,
      "ĠInstead": 3481,
      "Ġchar": 3482,
      "Ġinstances": 3483,
      "import": 3484,
      "alls": 3485,
      "tection": 3486,
      "Matter": 3487,
      "pendix": 3488,
      "Ġstrong": 3489,
      "Ġdue": 3490,
      "amb": 3491,
      "Ġes": 3492,
      "Ġtrad": 3493,
      "related": 3494,
      "MM": 3495,
      "free": 3496,
      "ĠPart": 3497,
      "wehave": 3498,
      "Ġwaves": 3499,
      "Ġgets": 3500,
      "ĠAlso": 3501,
      "Ġprompt": 3502,
      "Page": 3503,
      "ited": 3504,
      "Ġactive": 3505,
      "Ġremove": 3506,
      "Ġatoms": 3507,
      "Ġcounter": 3508,
      "amp": 3509,
      "Ġwhole": 3510,
      "AG": 3511,
      "group": 3512,
      "Ġdrop": 3513,
      "acro": 3514,
      "Ġshall": 3515,
      "make": 3516,
      "rices": 3517,
      "ĠAct": 3518,
      "ĠFurther": 3519,
      "Ġinterfaces": 3520,
      "ailed": 3521,
      "between": 3522,
      "Ġfont": 3523,
      "Ġbody": 3524,
      "Ġappears": 3525,
      "Sh": 3526,
      "yz": 3527,
      "Ġ>>": 3528,
      "Ġpreceding": 3529,
      "Ġtables": 3530,
      "atthe": 3531,
      "imilarly": 3532,
      "incre": 3533,
      "lyn": 3534,
      "ĠVari": 3535,
      "File": 3536,
      "actions": 3537,
      "bar": 3538,
      "Ġbig": 3539,
      "through": 3540,
      "Ġeng": 3541,
      "eler": 3542,
      "Ġ=(": 3543,
      "Ġinherit": 3544,
      "Ġenter": 3545,
      "Ġanswer": 3546,
      "canb": 3547,
      "ants": 3548,
      "Ġali": 3549,
      "Ġcomb": 3550,
      "Ġstarts": 3551,
      "Linux": 3552,
      "Ġforces": 3553,
      "queue": 3554,
      "general": 3555,
      "Ġones": 3556,
      "alue": 3557,
      "rust": 3558,
      "Ġpatterns": 3559,
      "emonstr": 3560,
      "75": 3561,
      "::": 3562,
      "Ġsubst": 3563,
      "anch": 3564,
      "ĠeMatter": 3565,
      "ĠOpt": 3566,
      "ationof": 3567,
      "Ġ45": 3568,
      "atform": 3569,
      "ĠSec": 3570,
      "ĠLe": 3571,
      "Ġfram": 3572,
      "specific": 3573,
      "correct": 3574,
      "oh": 3575,
      "Ġord": 3576,
      "Ġremote": 3577,
      "Ġtemperature": 3578,
      "Ġwon": 3579,
      "LB": 3580,
      "next": 3581,
      "Ġborder": 3582,
      "Ġsty": 3583,
      "ĠRE": 3584,
      "Ġlogin": 3585,
      "ypothesis": 3586,
      "press": 3587,
      "ĠMod": 3588,
      "Ġensure": 3589,
      "Gaussian": 3590,
      "104": 3591,
      "script": 3592,
      "Ġbasis": 3593,
      "tw": 3594,
      "ples": 3595,
      "System": 3596,
      "Ġyet": 3597,
      "cedures": 3598,
      "Ġimprove": 3599,
      "Ġprot": 3600,
      ")))": 3601,
      "TROL": 3602,
      "tod": 3603,
      "initial": 3604,
      "Ġamong": 3605,
      "entry": 3606,
      "Ġclock": 3607,
      "enu": 3608,
      "utorial": 3609,
      "ournal": 3610,
      "undam": 3611,
      "Ġelectrons": 3612,
      "icrosoft": 3613,
      "jection": 3614,
      "squ": 3615,
      "ĠPHP": 3616,
      "component": 3617,
      "Ġfalse": 3618,
      "idge": 3619,
      "edia": 3620,
      "because": 3621,
      "osen": 3622,
      "Ġattack": 3623,
      "Ġ=>": 3624,
      "Ġdecision": 3625,
      "OST": 3626,
      "Ġstraight": 3627,
      "request": 3628,
      "Ġsampling": 3629,
      "Ġhash": 3630,
      "ĠKernel": 3631,
      "ĠAss": 3632,
      "Ġgenerally": 3633,
      "ched": 3634,
      "Ġbal": 3635,
      "Ġabsolute": 3636,
      "mers": 3637,
      "Ġchain": 3638,
      "Ġaccording": 3639,
      "light": 3640,
      "sys": 3641,
      "ĠSub": 3642,
      "Ġframework": 3643,
      "YST": 3644,
      "gence": 3645,
      "Ġauthent": 3646,
      "Ġmail": 3647,
      "assign": 3648,
      "ĠAngular": 3649,
      "overed": 3650,
      "Ġpres": 3651,
      "afe": 3652,
      "ulate": 3653,
      "Res": 3654,
      "left": 3655,
      "Ġ(\"": 3656,
      "Ġcoll": 3657,
      "ropy": 3658,
      "www": 3659,
      "Ġ).": 3660,
      "Ġful": 3661,
      "Ġiss": 3662,
      "Ġnote": 3663,
      "expect": 3664,
      "Ġdecre": 3665,
      "othat": 3666,
      "Ġalthough": 3667,
      "Ġreturned": 3668,
      "ĠOur": 3669,
      "Ġsuppose": 3670,
      "Ġsmaller": 3671,
      "YSTEM": 3672,
      "home": 3673,
      "Ġconsole": 3674,
      "Ġdoing": 3675,
      "udio": 3676,
      "Ġinference": 3677,
      "Ġexplo": 3678,
      "Ġsubject": 3679,
      "icrop": 3680,
      "Ġincrease": 3681,
      "Ġorgan": 3682,
      "Im": 3683,
      "SQL": 3684,
      "vok": 3685,
      "Ġachie": 3686,
      "Ġparticles": 3687,
      "CP": 3688,
      "gre": 3689,
      "ĠFree": 3690,
      "orexample": 3691,
      "Ġotherwise": 3692,
      "ĠExercises": 3693,
      "LO": 3694,
      "jang": 3695,
      "vanced": 3696,
      "Ġphase": 3697,
      "ĠApp": 3698,
      "likelihood": 3699,
      "Ġothers": 3700,
      "SC": 3701,
      "fortun": 3702,
      "Ġinstruction": 3703,
      "bitrary": 3704,
      "Ġment": 3705,
      "ĠView": 3706,
      "Ġstatements": 3707,
      "abilistic": 3708,
      "Ġaway": 3709,
      "Ġnu": 3710,
      "icropost": 3711,
      "title": 3712,
      "Ġbro": 3713,
      "ĠST": 3714,
      "ĠMax": 3715,
      "Ġquery": 3716,
      "ront": 3717,
      "Mod": 3718,
      "Ġmiss": 3719,
      "thus": 3720,
      "features": 3721,
      "scill": 3722,
      "efficient": 3723,
      "Ġreport": 3724,
      "while": 3725,
      "Ġpassed": 3726,
      "Ġdesigned": 3727,
      "De": 3728,
      "usr": 3729,
      "Ġgame": 3730,
      "itions": 3731,
      "ĠProblem": 3732,
      "Ġregister": 3733,
      "approach": 3734,
      "rror": 3735,
      "icate": 3736,
      "72": 3737,
      "Ġcomputing": 3738,
      "cer": 3739,
      "Ġtions": 3740,
      "Ġdu": 3741,
      "haps": 3742,
      "ĠGo": 3743,
      "Ġign": 3744,
      "Ġimple": 3745,
      "Ġobtained": 3746,
      "abled": 3747,
      "Ġunique": 3748,
      "words": 3749,
      "certain": 3750,
      "etal": 3751,
      "Ġdirectories": 3752,
      "predict": 3753,
      "rate": 3754,
      "Ġprocessing": 3755,
      "Ġrepresented": 3756,
      "linux": 3757,
      "Ġdeal": 3758,
      "Ġincluded": 3759,
      "Ġpp": 3760,
      "ĠRet": 3761,
      "Ġperiod": 3762,
      "Ġobserved": 3763,
      "Ġgreater": 3764,
      "ux": 3765,
      "ously": 3766,
      "Ġlogical": 3767,
      "Ġresulting": 3768,
      "gress": 3769,
      "atethe": 3770,
      "ĠAccess": 3771,
      "Ġcolumns": 3772,
      "jango": 3773,
      "xn": 3774,
      "Ġconnection": 3775,
      "Ġche": 3776,
      "Ġ()": 3777,
      "Ġmathemat": 3778,
      "Ġtechniques": 3779,
      "approxim": 3780,
      "another": 3781,
      "root": 3782,
      "Ġlot": 3783,
      "gen": 3784,
      "ĠSummary": 3785,
      "Ġexists": 3786,
      "conn": 3787,
      "roduction": 3788,
      "Ġproportional": 3789,
      "virtual": 3790,
      "ighb": 3791,
      "deed": 3792,
      "Ġsubclass": 3793,
      "Ġtesting": 3794,
      "Ġscale": 3795,
      "\";": 3796,
      "da": 3797,
      "main": 3798,
      "Ġaffect": 3799,
      "elong": 3800,
      "been": 3801,
      "wed": 3802,
      "ncy": 3803,
      "Ġtaken": 3804,
      "Ġcompiler": 3805,
      "Ġcomplexity": 3806,
      "node": 3807,
      "Ġshare": 3808,
      "Ġtechnique": 3809,
      "host": 3810,
      "issions": 3811,
      "Ġamplitude": 3812,
      "CHAPTER": 3813,
      "asm": 3814,
      "Ġ31": 3815,
      "ĠCONTROL": 3816,
      "Ġoscill": 3817,
      "Ġfe": 3818,
      "Ġexport": 3819,
      "Ġfollowed": 3820,
      "Ġstrings": 3821,
      "Ġcoord": 3822,
      "Ġexam": 3823,
      "ideo": 3824,
      "PER": 3825,
      "elves": 3826,
      "TE": 3827,
      "Xiv": 3828,
      "were": 3829,
      "ĠUp": 3830,
      "Ġminimum": 3831,
      "ĠMon": 3832,
      "lynomial": 3833,
      "dri": 3834,
      "eterm": 3835,
      "Ġls": 3836,
      "Ġconnected": 3837,
      "Ġsolve": 3838,
      "sers": 3839,
      "Ġheight": 3840,
      "control": 3841,
      "ĠCode": 3842,
      "ĠList": 3843,
      "aracter": 3844,
      "iddle": 3845,
      "fix": 3846,
      "Ġdiv": 3847,
      "irectory": 3848,
      "**": 3849,
      "wec": 3850,
      "abl": 3851,
      "Ġimmediately": 3852,
      "Ġoccurs": 3853,
      "Ġpolicy": 3854,
      "Ġval": 3855,
      "Ġfault": 3856,
      "irm": 3857,
      "alled": 3858,
      "abe": 3859,
      "ĠMemory": 3860,
      "Ġcauses": 3861,
      "Ġte": 3862,
      "Ġsugg": 3863,
      "Ġagainst": 3864,
      "fect": 3865,
      "gu": 3866,
      "Ġmodify": 3867,
      "iversity": 3868,
      "Ġissues": 3869,
      "itude": 3870,
      "edto": 3871,
      "Ġsegment": 3872,
      "fortunately": 3873,
      "df": 3874,
      "dir": 3875,
      "eline": 3876,
      "Ġbeginning": 3877,
      "On": 3878,
      "Ġnothing": 3879,
      "Ġcollection": 3880,
      "ometimes": 3881,
      "sim": 3882,
      "Ġsynchron": 3883,
      "ĠPo": 3884,
      "ĠMat": 3885,
      "gradient": 3886,
      "Ġmodules": 3887,
      "Ġinputs": 3888,
      "asso": 3889,
      "ĠDesign": 3890,
      "ĠRails": 3891,
      "before": 3892,
      "thesame": 3893,
      "filesystem": 3894,
      "Net": 3895,
      "Ġexit": 3896,
      "Ġconnect": 3897,
      "ĠIR": 3898,
      "application": 3899,
      "Ġcomplicated": 3900,
      "propagation": 3901,
      "tore": 3902,
      "Ġadvantage": 3903,
      "Ġcurve": 3904,
      ")ï¿½": 3905,
      "53": 3906,
      "idence": 3907,
      "Ġoutside": 3908,
      "Ġsamples": 3909,
      "Ġbottom": 3910,
      "ĠEven": 3911,
      "Ġuniform": 3912,
      "Date": 3913,
      "Exception": 3914,
      "Ġproduce": 3915,
      "Ġdefines": 3916,
      "Ġembed": 3917,
      "Ġcurrently": 3918,
      "Ġgroups": 3919,
      "ai": 3920,
      "Ġissue": 3921,
      "Ġsoft": 3922,
      "independ": 3923,
      "Ġtransfer": 3924,
      "ln": 3925,
      "Ġready": 3926,
      "Ġwaiting": 3927,
      "cell": 3928,
      "igu": 3929,
      "Ġfilename": 3930,
      "imin": 3931,
      "Windows": 3932,
      "sfor": 3933,
      "even": 3934,
      "Ġconditions": 3935,
      "Ġassigned": 3936,
      "Ġtw": 3937,
      "Ġda": 3938,
      "ĠType": 3939,
      "Ġoccur": 3940,
      "supervised": 3941,
      "............": 3942,
      "Ġ29": 3943,
      "Ġabstract": 3944,
      "SP": 3945,
      "lib": 3946,
      "Ġtra": 3947,
      "Ġactivation": 3948,
      "isters": 3949,
      "machine": 3950,
      "iding": 3951,
      "Ġextra": 3952,
      "Ġcenter": 3953,
      "know": 3954,
      "ĠTest": 3955,
      "Ġmodified": 3956,
      "Ġlevels": 3957,
      "Ġdynamic": 3958,
      "Rec": 3959,
      "Ġfi": 3960,
      "Ġconsidered": 3961,
      "Ġsettings": 3962,
      "Ġlearned": 3963,
      "AID": 3964,
      "dr": 3965,
      "Ġitems": 3966,
      "sth": 3967,
      "Ġimag": 3968,
      "available": 3969,
      "istical": 3970,
      "NU": 3971,
      "Ġconven": 3972,
      "Ġ33": 3973,
      "ymb": 3974,
      "':": 3975,
      "Ġprim": 3976,
      "Ġdescription": 3977,
      "Ġswap": 3978,
      "flag": 3979,
      "IR": 3980,
      "ĠFiles": 3981,
      "atio": 3982,
      "Ġeditor": 3983,
      "Ġcritical": 3984,
      "78": 3985,
      "design": 3986,
      "Ġsave": 3987,
      "Ġbar": 3988,
      "Ġnatural": 3989,
      "ili": 3990,
      "ensive": 3991,
      "string": 3992,
      "Ġallowed": 3993,
      "59": 3994,
      "ĠHe": 3995,
      "arning": 3996,
      "emo": 3997,
      "Ġrisk": 3998,
      "Ġinstructions": 3999,
      "Ġconfigure": 4000,
      "pecially": 4001,
      "running": 4002,
      "How": 4003,
      "angular": 4004,
      "Ġkinds": 4005,
      "frame": 4006,
      "scal": 4007,
      "Ġdimensional": 4008,
      "Ġship": 4009,
      "create": 4010,
      "03": 4011,
      "ĠStart": 4012,
      "56": 4013,
      "Ġexpressions": 4014,
      "your": 4015,
      "bs": 4016,
      "term": 4017,
      "consider": 4018,
      "ername": 4019,
      "Ġseries": 4020,
      "Ġguarant": 4021,
      "Ġsuggest": 4022,
      "db": 4023,
      "Le": 4024,
      "ses": 4025,
      "Ġbenef": 4026,
      "au": 4027,
      "den": 4028,
      "gers": 4029,
      "Ġ~": 4030,
      "Ġconvent": 4031,
      "Ġfunctionality": 4032,
      "IL": 4033,
      "Ġpool": 4034,
      "Ġprivile": 4035,
      "Ġdocumentation": 4036,
      "Ġmajor": 4037,
      "08": 4038,
      "orig": 4039,
      "Ġalmost": 4040,
      "lement": 4041,
      "Ġchanging": 4042,
      "Ġexplicitly": 4043,
      "ĠSimilarly": 4044,
      "52": 4045,
      "should": 4046,
      "ethatthe": 4047,
      "inFigure": 4048,
      "rical": 4049,
      "ategor": 4050,
      "ĠInd": 4051,
      "ĠNU": 4052,
      "Ġnotation": 4053,
      "pth": 4054,
      "ĠShow": 4055,
      "apt": 4056,
      "Ġalternative": 4057,
      "posite": 4058,
      "Ġroutine": 4059,
      "inthis": 4060,
      "Id": 4061,
      "isp": 4062,
      "udes": 4063,
      "Ġzone": 4064,
      "Ġreduce": 4065,
      "Ġday": 4066,
      "ĠProduct": 4067,
      "rw": 4068,
      "ites": 4069,
      "open": 4070,
      "ĠAND": 4071,
      "instance": 4072,
      "Ġforms": 4073,
      "Ġupdates": 4074,
      "Ġlibraries": 4075,
      "Ġtells": 4076,
      "Ġdeclar": 4077,
      "']": 4078,
      "ĠMe": 4079,
      "ightly": 4080,
      "describ": 4081,
      "Ne": 4082,
      "Set": 4083,
      "urning": 4084,
      "Ġmeaning": 4085,
      "Ġmonitor": 4086,
      "cher": 4087,
      "occ": 4088,
      "ĠSp": 4089,
      "ĠMethod": 4090,
      "OSIX": 4091,
      "Ġmechanics": 4092,
      "Ġcallback": 4093,
      "OW": 4094,
      "Ġisn": 4095,
      "Ġsections": 4096,
      "Ġdataset": 4097,
      "corresponding": 4098,
      "len": 4099,
      "Ġremember": 4100,
      "74": 4101,
      "Ġphysics": 4102,
      "Ġangle": 4103,
      "cket": 4104,
      "Ġoperators": 4105,
      "386": 4106,
      "Ġsymmet": 4107,
      "givenby": 4108,
      "Ġcore": 4109,
      "Ġbeli": 4110,
      "Ġyield": 4111,
      "));": 4112,
      "Ġknowledge": 4113,
      "State": 4114,
      "Ġintroduced": 4115,
      "ifiers": 4116,
      "ovariance": 4117,
      "high": 4118,
      "tof": 4119,
      "Ġlanguages": 4120,
      "Ġheader": 4121,
      "ethis": 4122,
      "Ġchecks": 4123,
      "complex": 4124,
      "Ġmargin": 4125,
      "alt": 4126,
      "Ġfast": 4127,
      "aun": 4128,
      "yd": 4129,
      "ĠSuch": 4130,
      "Ġstarted": 4131,
      "Ġprobably": 4132,
      "Ġfix": 4133,
      "Ġengine": 4134,
      "Ġrect": 4135,
      ")/": 4136,
      "arse": 4137,
      "Ġselected": 4138,
      "Ġpopular": 4139,
      "Ġcharges": 4140,
      "Ġfully": 4141,
      "IB": 4142,
      "IST": 4143,
      "uth": 4144,
      "129": 4145,
      "Ġmarginal": 4146,
      "Ġdead": 4147,
      "password": 4148,
      "Ġrecomm": 4149,
      "ĠSolution": 4150,
      "ĠWin": 4151,
      "Ġkeys": 4152,
      "wewill": 4153,
      "cos": 4154,
      "ĠSystems": 4155,
      "ĠCol": 4156,
      "Ġsufficient": 4157,
      "Ġgoal": 4158,
      "Ġlabels": 4159,
      "non": 4160,
      "parent": 4161,
      "Ġoptimal": 4162,
      "User": 4163,
      "again": 4164,
      "exe": 4165,
      "ĠCommand": 4166,
      "73": 4167,
      "Ġangular": 4168,
      "eated": 4169,
      "addition": 4170,
      "ĠYour": 4171,
      "Ġdiscussion": 4172,
      "Ġcalculate": 4173,
      "71": 4174,
      "nces": 4175,
      "oted": 4176,
      "cap": 4177,
      "eb": 4178,
      "ĠAg": 4179,
      "quant": 4180,
      "ĠThread": 4181,
      "ithmetic": 4182,
      "ogle": 4183,
      "Ġcombination": 4184,
      "after": 4185,
      "td": 4186,
      "ley": 4187,
      "Ġmention": 4188,
      "ĠIs": 4189,
      "istance": 4190,
      "Ġproducts": 4191,
      "Ġng": 4192,
      "ĠVirtual": 4193,
      "Ġclean": 4194,
      "Ġlif": 4195,
      "vert": 4196,
      "Ġexternal": 4197,
      "aved": 4198,
      "Ġplatform": 4199,
      "ERS": 4200,
      "Ġcomputation": 4201,
      "ĠHTTP": 4202,
      "Ġintegral": 4203,
      "Ġdistributed": 4204,
      "Ġ36": 4205,
      "mann": 4206,
      "clear": 4207,
      "activ": 4208,
      "Ġregions": 4209,
      "Ġacceler": 4210,
      "ĠImplement": 4211,
      "Ġinode": 4212,
      "present": 4213,
      "ĠEquation": 4214,
      "flow": 4215,
      "isions": 4216,
      "inding": 4217,
      "Ġprevent": 4218,
      "abeled": 4219,
      "ilo": 4220,
      "ital": 4221,
      "arm": 4222,
      "omen": 4223,
      "cles": 4224,
      "dictions": 4225,
      "Model": 4226,
      "tor": 4227,
      "Ġfuture": 4228,
      "Ġprediction": 4229,
      "Ġgraphical": 4230,
      "Ġconstructor": 4231,
      "Code": 4232,
      "Ġir": 4233,
      "Ġmixture": 4234,
      "device": 4235,
      "Ġacqu": 4236,
      "Ġ)=": 4237,
      "imitive": 4238,
      "operation": 4239,
      "CH": 4240,
      "larg": 4241,
      "ĠHand": 4242,
      "Ġarri": 4243,
      "There": 4244,
      "inition": 4245,
      "Ġupper": 4246,
      "Ġpick": 4247,
      "Ġhor": 4248,
      "above": 4249,
      "token": 4250,
      "Ġreads": 4251,
      "Ġconsists": 4252,
      "oin": 4253,
      "uit": 4254,
      "Ġredirect": 4255,
      "ĠCar": 4256,
      "Ġmodern": 4257,
      "thatis": 4258,
      "real": 4259,
      "DU": 4260,
      "Ġdemonstr": 4261,
      "Ġhalf": 4262,
      "Ġdiction": 4263,
      "selves": 4264,
      "Ġcover": 4265,
      "ĠRu": 4266,
      "Ġclassifier": 4267,
      "Ġphot": 4268,
      "Ġhandler": 4269,
      "['": 4270,
      "Ġinterval": 4271,
      "axis": 4272,
      "Ġstrategy": 4273,
      "Ġetc": 4274,
      "Ġdownload": 4275,
      "Ġbrowsers": 4276,
      "Ġactions": 4277,
      "propert": 4278,
      "Ġdev": 4279,
      "Ġeffects": 4280,
      "Ġreplace": 4281,
      "ĠLoad": 4282,
      "ĠMySQL": 4283,
      "Ġln": 4284,
      "Ġdimensions": 4285,
      "Ġtheorem": 4286,
      "Ġaxis": 4287,
      "ĠText": 4288,
      "Ġhypothesis": 4289,
      "Ġpossib": 4290,
      "Ġnoise": 4291,
      "Ġvisual": 4292,
      "Ġexponent": 4293,
      "Ġperformed": 4294,
      "cel": 4295,
      "hould": 4296,
      "Ġfac": 4297,
      "ofthis": 4298,
      "Ġrad": 4299,
      "Ġoverr": 4300,
      "Ġcompar": 4301,
      "Ġsolutions": 4302,
      "Ġholds": 4303,
      "Ġstyles": 4304,
      "ĠUS": 4305,
      "Ġability": 4306,
      "Ġearly": 4307,
      "Ġlatent": 4308,
      "color": 4309,
      "operations": 4310,
      "Ġvisible": 4311,
      "========": 4312,
      "undamental": 4313,
      "Object": 4314,
      "cr": 4315,
      "ying": 4316,
      "isthat": 4317,
      "physical": 4318,
      "Cre": 4319,
      "Fig": 4320,
      "effic": 4321,
      "Ġcou": 4322,
      "ĠAb": 4323,
      "tobe": 4324,
      "ĠStat": 4325,
      "important": 4326,
      "ĠFurthermore": 4327,
      "que": 4328,
      "ĠMicrosoft": 4329,
      "ypically": 4330,
      "Ġscheduler": 4331,
      "PAC": 4332,
      "Ġcommit": 4333,
      "books": 4334,
      "ĠMarkov": 4335,
      "LU": 4336,
      "lead": 4337,
      "abor": 4338,
      "chapter": 4339,
      "ĠHence": 4340,
      "Ġcalling": 4341,
      "Ġcomputers": 4342,
      "priority": 4343,
      "Ġcorresponds": 4344,
      "source": 4345,
      "Ġfeed": 4346,
      "ĠSw": 4347,
      "DD": 4348,
      "Table": 4349,
      "Ġsignals": 4350,
      "Name": 4351,
      "Ġdiscrete": 4352,
      "ĠApplication": 4353,
      "##": 4354,
      "ooth": 4355,
      "grad": 4356,
      "ĠConf": 4357,
      "store": 4358,
      "locks": 4359,
      "context": 4360,
      "Ġdevelopers": 4361,
      "Ġrespectively": 4362,
      "might": 4363,
      "Ġflex": 4364,
      "column": 4365,
      "Ġhttps": 4366,
      "Ġnavig": 4367,
      "interrupt": 4368,
      "Ġimplements": 4369,
      "AY": 4370,
      "uid": 4371,
      "xt": 4372,
      "Ġsplit": 4373,
      "place": 4374,
      "estions": 4375,
      "ĠAny": 4376,
      "Ġloaded": 4377,
      "integr": 4378,
      "found": 4379,
      "Ġmenu": 4380,
      "asingle": 4381,
      "Ġ2000": 4382,
      "ĠWhy": 4383,
      "hidden": 4384,
      "ams": 4385,
      "Ġvi": 4386,
      "tz": 4387,
      "Ġever": 4388,
      "posit": 4389,
      "Ġcluster": 4390,
      "ium": 4391,
      "array": 4392,
      "without": 4393,
      "scrib": 4394,
      "232": 4395,
      "IS": 4396,
      "wards": 4397,
      "ĠUnfortunately": 4398,
      "ĠControl": 4399,
      "eas": 4400,
      "Ġwish": 4401,
      "enthe": 4402,
      "Ġvert": 4403,
      "ĠMode": 4404,
      "Ġ34": 4405,
      "Ġanything": 4406,
      "ĠNeural": 4407,
      "yond": 4408,
      "Ġblack": 4409,
      "mitted": 4410,
      "Ġmonth": 4411,
      "Ġpairs": 4412,
      "Ġfailure": 4413,
      "Dis": 4414,
      "PE": 4415,
      "atur": 4416,
      "agment": 4417,
      "often": 4418,
      "Ġasynchronous": 4419,
      "obile": 4420,
      "76": 4421,
      "reme": 4422,
      "Ġnn": 4423,
      "ĠReg": 4424,
      "plot": 4425,
      "come": 4426,
      "Ġformula": 4427,
      "itectures": 4428,
      "car": 4429,
      "otes": 4430,
      "eter": 4431,
      "poses": 4432,
      "Ġ%>": 4433,
      "zn": 4434,
      "ulated": 4435,
      "rief": 4436,
      "Ġclients": 4437,
      "Ġmanage": 4438,
      "Ġlaws": 4439,
      "batch": 4440,
      "normal": 4441,
      "Ġsn": 4442,
      "Ġvary": 4443,
      "ĠSIG": 4444,
      "Ġspe": 4445,
      "aphore": 4446,
      "Ġhandling": 4447,
      "dataset": 4448,
      "signed": 4449,
      "select": 4450,
      "isto": 4451,
      "ĠPl": 4452,
      "Ġderivative": 4453,
      "ĠOb": 4454,
      "ips": 4455,
      "Ġplan": 4456,
      "Ġtimer": 4457,
      "Ġbelong": 4458,
      "hence": 4459,
      "utable": 4460,
      "Ġlooking": 4461,
      "Ġsomew": 4462,
      "Ġindicates": 4463,
      "Ġcommunication": 4464,
      "Service": 4465,
      "[:": 4466,
      "kens": 4467,
      "vas": 4468,
      "Ġperforms": 4469,
      "Ġ%}": 4470,
      "Ġatomic": 4471,
      "Ġwhereas": 4472,
      "Ġoutputs": 4473,
      "Ġdiagram": 4474,
      "Ġbatch": 4475,
      "unt": 4476,
      "Ġcontainer": 4477,
      "Ġtopic": 4478,
      "Ġcompletely": 4479,
      "Ġtraditional": 4480,
      "second": 4481,
      "And": 4482,
      "UI": 4483,
      "ĠEM": 4484,
      "Ġexecutes": 4485,
      "SEC": 4486,
      "Ġmoves": 4487,
      "answ": 4488,
      "gument": 4489,
      "Ġfaster": 4490,
      "Ġhistory": 4491,
      "ĠWrite": 4492,
      "Ġspecifies": 4493,
      "location": 4494,
      "Ġeverything": 4495,
      "stothe": 4496,
      "Module": 4497,
      "KB": 4498,
      "my": 4499,
      "lets": 4500,
      "allthe": 4501,
      "logical": 4502,
      "Ġregularization": 4503,
      "Ġquickly": 4504,
      "var": 4505,
      "Ġsaid": 4506,
      "Ġxx": 4507,
      "Ġgrav": 4508,
      "UL": 4509,
      "last": 4510,
      "ps": 4511,
      "acom": 4512,
      "ifthe": 4513,
      "79": 4514,
      "Ġfs": 4515,
      "straction": 4516,
      "som": 4517,
      "older": 4518,
      "Ġpackages": 4519,
      "Ġexecutable": 4520,
      "EP": 4521,
      "Ġcess": 4522,
      "Ġdt": 4523,
      "Ġfinding": 4524,
      "ĠIntroduction": 4525,
      "Ġtaking": 4526,
      "asets": 4527,
      "ĠUnix": 4528,
      "List": 4529,
      "Ġchosen": 4530,
      "Ġreasons": 4531,
      "mark": 4532,
      "ised": 4533,
      "andthen": 4534,
      "Ġvariety": 4535,
      "Ġobjective": 4536,
      "When": 4537,
      "csh": 4538,
      "hind": 4539,
      "redu": 4540,
      "Ġdire": 4541,
      "style": 4542,
      "neural": 4543,
      "Ġgreen": 4544,
      "wem": 4545,
      "Ġbul": 4546,
      "raft": 4547,
      "Ġpixels": 4548,
      "ĠFreeBSD": 4549,
      "You": 4550,
      "Ġfunc": 4551,
      "abs": 4552,
      "Ġonto": 4553,
      "Ġturns": 4554,
      "arest": 4555,
      "ĠComp": 4556,
      "regression": 4557,
      "adients": 4558,
      "sem": 4559,
      "hel": 4560,
      "Ġbad": 4561,
      "Ġpassing": 4562,
      "doesnot": 4563,
      "icated": 4564,
      "Ġremain": 4565,
      "istingu": 4566,
      "Ġmaxim": 4567,
      "target": 4568,
      "Ġcos": 4569,
      "Ġframes": 4570,
      "Ġconstraints": 4571,
      "Cl": 4572,
      "rele": 4573,
      "atom": 4574,
      "ĠLinear": 4575,
      "deriv": 4576,
      "Ġrelease": 4577,
      "Ġsymbolic": 4578,
      "fitting": 4579,
      "clo": 4580,
      "iver": 4581,
      "pack": 4582,
      "ayout": 4583,
      "ĠEd": 4584,
      "Ġgeneric": 4585,
      "Ġdisplayed": 4586,
      "Ġbuilding": 4587,
      "');": 4588,
      "Ġhuman": 4589,
      "Ġrecurs": 4590,
      "Ġunderlying": 4591,
      "ĠCreating": 4592,
      "Value": 4593,
      "ĠDescript": 4594,
      "Ġarbitrary": 4595,
      "Ġupdated": 4596,
      "Ġcorrespond": 4597,
      "Ġflags": 4598,
      "Ġsymbol": 4599,
      "inwhich": 4600,
      "ats": 4601,
      "rout": 4602,
      "Ġrole": 4603,
      "previous": 4604,
      "ĠAdding": 4605,
      "complete": 4606,
      "Item": 4607,
      "><": 4608,
      "Test": 4609,
      "mission": 4610,
      "icles": 4611,
      "lof": 4612,
      "Ġ};": 4613,
      "Ġmagn": 4614,
      "Ġfine": 4615,
      "izont": 4616,
      "ĠOut": 4617,
      "Ġcorrectly": 4618,
      "emb": 4619,
      "ĠPRO": 4620,
      "introdu": 4621,
      "rown": 4622,
      "strain": 4623,
      "Ġcapac": 4624,
      "Query": 4625,
      "boot": 4626,
      "Ġactivity": 4627,
      "Ġimp": 4628,
      "Ġroute": 4629,
      "points": 4630,
      "Ġfill": 4631,
      "Ġmacro": 4632,
      "Ġaspect": 4633,
      "Ġtrick": 4634,
      "Ġeffective": 4635,
      "Ġallocated": 4636,
      "Ġ................................................": 4637,
      "Ġprecise": 4638,
      "US": 4639,
      "ĠSYSTEM": 4640,
      "seud": 4641,
      "ĠEvery": 4642,
      "Ġ->": 4643,
      "Ġincreases": 4644,
      "ĠBefore": 4645,
      "Ġsleep": 4646,
      "Ġdivid": 4647,
      "Ġperfect": 4648,
      "Ġpermissions": 4649,
      "Ġpurpose": 4650,
      "Ġstand": 4651,
      "Ġstores": 4652,
      "ivari": 4653,
      "ĠGiven": 4654,
      "Ġcontrast": 4655,
      "Ġsin": 4656,
      "ĠShell": 4657,
      "direction": 4658,
      "ello": 4659,
      "ĠSecond": 4660,
      "ĠGet": 4661,
      "written": 4662,
      "ĠAppendix": 4663,
      "directory": 4664,
      "servation": 4665,
      "mem": 4666,
      "ĠMult": 4667,
      "Ġprocessors": 4668,
      "Class": 4669,
      "Ġtitle": 4670,
      "iness": 4671,
      "Ġmis": 4672,
      "ĠNode": 4673,
      "Ġdisp": 4674,
      "ĠForm": 4675,
      "rawn": 4676,
      "Thread": 4677,
      "descript": 4678,
      "becaus": 4679,
      "including": 4680,
      "hardware": 4681,
      "igmoid": 4682,
      "Mon": 4683,
      "inger": 4684,
      "Ġpast": 4685,
      "ided": 4686,
      "ĠMulti": 4687,
      "area": 4688,
      "Ġ90": 4689,
      "Ġregist": 4690,
      "eries": 4691,
      "emodel": 4692,
      "Ġvim": 4693,
      "Ġdependencies": 4694,
      "ĠReturn": 4695,
      "eve": 4696,
      "tree": 4697,
      "standard": 4698,
      "Ġwrites": 4699,
      "Ġrelatively": 4700,
      "Ġrows": 4701,
      ",)": 4702,
      "irical": 4703,
      "Ġ42": 4704,
      "Ġjoint": 4705,
      "ishing": 4706,
      "(&": 4707,
      "could": 4708,
      "Ġpadding": 4709,
      "Ġbash": 4710,
      "aching": 4711,
      "Ġprogrammers": 4712,
      "Ġowner": 4713,
      "suchas": 4714,
      "operatingsystem": 4715,
      "sk": 4716,
      "Ġplot": 4717,
      "usually": 4718,
      "ptions": 4719,
      "thesystem": 4720,
      "Ġcompared": 4721,
      "sequent": 4722,
      "Ġconnections": 4723,
      "Ġinterpret": 4724,
      "IZ": 4725,
      "tem": 4726,
      "Ġmutex": 4727,
      "ĠNT": 4728,
      "processing": 4729,
      "manag": 4730,
      "Ġvalidation": 4731,
      "betwe": 4732,
      "pur": 4733,
      "Ġpen": 4734,
      "separ": 4735,
      "ĠBoth": 4736,
      "Ġunless": 4737,
      "whichis": 4738,
      "ohn": 4739,
      "Ġpush": 4740,
      "Ġserial": 4741,
      "Ġtrying": 4742,
      "Control": 4743,
      "Ġconvolutional": 4744,
      "rather": 4745,
      "examples": 4746,
      "Ġdeploy": 4747,
      "Ġextension": 4748,
      "cs": 4749,
      "pe": 4750,
      "Ġsens": 4751,
      "MB": 4752,
      "ĠCH": 4753,
      "Ġprefer": 4754,
      "Ġedge": 4755,
      "signal": 4756,
      "Ġdebugging": 4757,
      "incip": 4758,
      "Ġconvex": 4759,
      "ialog": 4760,
      "ĠUnder": 4761,
      "Ġsecure": 4762,
      "Ġanalyz": 4763,
      "Ġpermission": 4764,
      "Ġcopies": 4765,
      "=(": 4766,
      "Ġple": 4767,
      "Ġabs": 4768,
      "ĠItem": 4769,
      "encoder": 4770,
      "Ġauthor": 4771,
      "Ġobservation": 4772,
      "Ġalign": 4773,
      "Ġidentify": 4774,
      "Machine": 4775,
      "ring": 4776,
      "iting": 4777,
      "ider": 4778,
      "Ġyear": 4779,
      "ĠPOSIX": 4780,
      "Ġ2008": 4781,
      "means": 4782,
      "Ġ38": 4783,
      "Ġsupports": 4784,
      "HT": 4785,
      "Ġhole": 4786,
      "adr": 4787,
      "Ġusage": 4788,
      "Ġchann": 4789,
      "Ġ70": 4790,
      "Ġlisting": 4791,
      "ĠĠĠčĊ": 4792,
      "Ġespecially": 4793,
      "II": 4794,
      "bra": 4795,
      "anew": 4796,
      "Ġwater": 4797,
      "Ġnature": 4798,
      "admin": 4799,
      "Ġcomment": 4800,
      "Ġrestrict": 4801,
      "Ġsound": 4802,
      "Ġsizes": 4803,
      "usingthe": 4804,
      "forc": 4805,
      "anges": 4806,
      "Ġcloud": 4807,
      "Ġclassical": 4808,
      ")).": 4809,
      "RM": 4810,
      "Ġpers": 4811,
      "Ġideas": 4812,
      "ĠProgramming": 4813,
      "Ġpiece": 4814,
      "/.": 4815,
      "Ġinstalled": 4816,
      "urrency": 4817,
      "Ġregard": 4818,
      "Ġtransition": 4819,
      "CESS": 4820,
      "EX": 4821,
      "Ġsaw": 4822,
      "ene": 4823,
      "Ġmill": 4824,
      "inSection": 4825,
      "static": 4826,
      "Ġworth": 4827,
      "Ġreferred": 4828,
      "Ġarrays": 4829,
      "independent": 4830,
      "save": 4831,
      "acon": 4832,
      "econ": 4833,
      "undred": 4834,
      "Ġmagnet": 4835,
      "unk": 4836,
      "Ġorth": 4837,
      "Ġillustrated": 4838,
      "Ġauthentication": 4839,
      "ĠGPT": 4840,
      "pract": 4841,
      "ĠImage": 4842,
      "Ġallocation": 4843,
      "Ġobservations": 4844,
      "Ġexecuting": 4845,
      "Ġmissing": 4846,
      "';": 4847,
      "sing": 4848,
      "Ġleg": 4849,
      "avor": 4850,
      "Ġcollect": 4851,
      "Ġfri": 4852,
      "these": 4853,
      "Ġheat": 4854,
      "];": 4855,
      "Ġmask": 4856,
      "images": 4857,
      "ĠMac": 4858,
      "Ġsupported": 4859,
      "Ġincreasing": 4860,
      "vantages": 4861,
      "Ġlimited": 4862,
      "Ġwrong": 4863,
      "Bayes": 4864,
      "reed": 4865,
      "Ġuncertain": 4866,
      "Ġinstant": 4867,
      "Ġcomputational": 4868,
      "ĠSelect": 4869,
      "Ġletter": 4870,
      "say": 4871,
      "Ġef": 4872,
      "Ġdepending": 4873,
      "Ġscheme": 4874,
      "conditional": 4875,
      "Ġconvenient": 4876,
      "Form": 4877,
      "TH": 4878,
      "UNIX": 4879,
      "apoint": 4880,
      "classification": 4881,
      "Ġoffset": 4882,
      "ILE": 4883,
      "site": 4884,
      "shape": 4885,
      "Ġlisted": 4886,
      "Ġsubset": 4887,
      "Ġproduction": 4888,
      "Ġurl": 4889,
      "enari": 4890,
      "ĠGit": 4891,
      "101": 4892,
      "ĠManagement": 4893,
      "OL": 4894,
      "WOR": 4895,
      "lik": 4896,
      "Ġhref": 4897,
      "ĠIS": 4898,
      "ayer": 4899,
      "Ġï¿½ï¿½ï¿½": 4900,
      "Ġ41": 4901,
      "strap": 4902,
      "agraph": 4903,
      "TR": 4904,
      "lines": 4905,
      "uting": 4906,
      "river": 4907,
      "ODE": 4908,
      "Trans": 4909,
      "Ġter": 4910,
      "Ġaccessed": 4911,
      "Ġidentical": 4912,
      "Ġindicate": 4913,
      "Ġpolar": 4914,
      "ested": 4915,
      "Ġshape": 4916,
      "Ġneighb": 4917,
      "Ġplus": 4918,
      "Ġmatrices": 4919,
      "LI": 4920,
      "Pr": 4921,
      "effect": 4922,
      "sn": 4923,
      "Ġdays": 4924,
      "Ġbias": 4925,
      "Ġhack": 4926,
      "iffer": 4927,
      "Ġextract": 4928,
      "ĠExt": 4929,
      "require": 4930,
      "oot": 4931,
      "plex": 4932,
      "Ġobvious": 4933,
      "Ġretri": 4934,
      "iency": 4935,
      "Ġoptional": 4936,
      "Ġpowerful": 4937,
      "ese": 4938,
      "ĠTime": 4939,
      "Ġexcl": 4940,
      "Ġselection": 4941,
      "ogonal": 4942,
      "gebra": 4943,
      "Ġrepresenting": 4944,
      "gree": 4945,
      "oltz": 4946,
      "ards": 4947,
      "Ġtransformation": 4948,
      "ĠAlgorithm": 4949,
      "Ġrequirements": 4950,
      "threads": 4951,
      "Ġrecords": 4952,
      "associ": 4953,
      "iable": 4954,
      "angle": 4955,
      "ĠDevice": 4956,
      "limit": 4957,
      "Ġdescent": 4958,
      "instruction": 4959,
      "Ġslightly": 4960,
      "Ġclosed": 4961,
      "Ġhierarchy": 4962,
      "OP": 4963,
      "arr": 4964,
      "Ġmaster": 4965,
      "ĠSch": 4966,
      "Ġfilesystems": 4967,
      "ben": 4968,
      "names": 4969,
      "fff": 4970,
      "particular": 4971,
      "feature": 4972,
      "Ġprotection": 4973,
      "riv": 4974,
      "ĠOver": 4975,
      "fess": 4976,
      "Ġcomments": 4977,
      "Ġ:=": 4978,
      "Ġconsist": 4979,
      "Ġcontinuous": 4980,
      "roy": 4981,
      "Ġ39": 4982,
      "construct": 4983,
      "Ġtypical": 4984,
      "Ġpipe": 4985,
      "ĠIndex": 4986,
      "mm": 4987,
      "Ġvideo": 4988,
      "ĠTheorem": 4989,
      "ĠMake": 4990,
      "Ġ<%": 4991,
      "Ġplane": 4992,
      "ATING": 4993,
      "URE": 4994,
      "ale": 4995,
      "Ġwire": 4996,
      "Ġdr": 4997,
      "etime": 4998,
      "ĠCan": 4999,
      "ĠName": 5000,
      "osing": 5001,
      "iguous": 5002,
      "large": 5003,
      "uper": 5004,
      "izations": 5005,
      "Ġstatistics": 5006,
      "ĠState": 5007,
      "MP": 5008,
      "job": 5009,
      "Ġnice": 5010,
      "Ġsoon": 5011,
      "ATE": 5012,
      "Ġcriter": 5013,
      "iliar": 5014,
      "isal": 5015,
      "igr": 5016,
      "ĠAut": 5017,
      "iented": 5018,
      "esthe": 5019,
      "aming": 5020,
      "email": 5021,
      "Ġunsigned": 5022,
      "ipe": 5023,
      "Ġdictionary": 5024,
      "Ġmember": 5025,
      "Ġ067": 5026,
      "format": 5027,
      "ours": 5028,
      "6663": 5029,
      "Ġconsistent": 5030,
      "etothe": 5031,
      "Ġconcepts": 5032,
      "2326663": 5033,
      "Ġ0672326663": 5034,
      "Press": 5035,
      "Ġdb": 5036,
      "iring": 5037,
      "Ġinteract": 5038,
      "Ġexplain": 5039,
      "https": 5040,
      "ktop": 5041,
      "long": 5042,
      "uk": 5043,
      "inf": 5044,
      "bridge": 5045,
      "Ġremoved": 5046,
      "Ġdelete": 5047,
      "bes": 5048,
      "acs": 5049,
      "inder": 5050,
      "Ġrequested": 5051,
      "Ġunderstanding": 5052,
      "EEE": 5053,
      "Ġtensor": 5054,
      "henomen": 5055,
      "ĠAgain": 5056,
      "Equ": 5057,
      "hest": 5058,
      "Ġplaced": 5059,
      "express": 5060,
      "Ġexperience": 5061,
      "Time": 5062,
      "establ": 5063,
      "ultane": 5064,
      "Ġcomputed": 5065,
      "Ġcryst": 5066,
      "efficients": 5067,
      "ĠInthe": 5068,
      "Ġdetect": 5069,
      "Ġboundary": 5070,
      "Ġsentence": 5071,
      "FF": 5072,
      "Ġanim": 5073,
      "Ġreferences": 5074,
      "oded": 5075,
      "interest": 5076,
      "cules": 5077,
      "Ġprojects": 5078,
      "By": 5079,
      "pu": 5080,
      "Ġgas": 5081,
      "atively": 5082,
      "Ġinvalid": 5083,
      "Ġauth": 5084,
      "Ġachieve": 5085,
      "iom": 5086,
      "ĠFr": 5087,
      "Ġspaces": 5088,
      "ĠVM": 5089,
      "ERT": 5090,
      "INE": 5091,
      "ĠFunctions": 5092,
      "pair": 5093,
      "Ġ(ï¿½": 5094,
      "ĠElect": 5095,
      "bert": 5096,
      "Ġapproaches": 5097,
      "buffer": 5098,
      ",(": 5099,
      "void": 5100,
      "help": 5101,
      "inity": 5102,
      "Ġfinite": 5103,
      "Ġmapped": 5104,
      "ansion": 5105,
      "plicity": 5106,
      "ynamic": 5107,
      "results": 5108,
      "Ġfamily": 5109,
      "gments": 5110,
      "upd": 5111,
      "Ġprogrammer": 5112,
      "Ġinvoked": 5113,
      "Ġpointers": 5114,
      "Ġinvolves": 5115,
      "NT": 5116,
      "world": 5117,
      "Ġcovariance": 5118,
      "ott": 5119,
      "ĠSoftware": 5120,
      "oles": 5121,
      "Ġseem": 5122,
      "Ġformal": 5123,
      "Ġfactors": 5124,
      "Ġpreviously": 5125,
      "Ġinvokes": 5126,
      "Ġreceive": 5127,
      "incipal": 5128,
      "/(": 5129,
      "ĠTutorial": 5130,
      "ĠCHAP": 5131,
      "ĠRAM": 5132,
      "ĠHint": 5133,
      "variance": 5134,
      "Ġscripts": 5135,
      "(ï¿½": 5136,
      "stack": 5137,
      "2016": 5138,
      "Ġschedu": 5139,
      "wd": 5140,
      "Ġtalk": 5141,
      "Ġreview": 5142,
      "oving": 5143,
      "Ġ2012": 5144,
      "Ġlinked": 5145,
      "07": 5146,
      "Ġrend": 5147,
      "ĠInthis": 5148,
      "ruc": 5149,
      "Ġscope": 5150,
      "Ġcompare": 5151,
      "likely": 5152,
      "Ġnormally": 5153,
      "Ġprimary": 5154,
      "KS": 5155,
      "ded": 5156,
      "Ġtoday": 5157,
      "Ġproof": 5158,
      "ĠCheck": 5159,
      "Ġcontrib": 5160,
      "Ġplaces": 5161,
      "networks": 5162,
      "GPT": 5163,
      "ĠAcc": 5164,
      "ĠBack": 5165,
      "Ġchall": 5166,
      "irty": 5167,
      "Ġextended": 5168,
      "Ġconcern": 5169,
      "bre": 5170,
      "core": 5171,
      "ek": 5172,
      "xx": 5173,
      "aren": 5174,
      "Ġmanip": 5175,
      "Ġgram": 5176,
      "standing": 5177,
      "Ġrecent": 5178,
      "ocation": 5179,
      "Ġvs": 5180,
      "ewill": 5181,
      "Ġdisks": 5182,
      "Ġreflect": 5183,
      "transform": 5184,
      "rees": 5185,
      "ĠTwo": 5186,
      "ĠTechn": 5187,
      "vergence": 5188,
      "Ġsudo": 5189,
      "event": 5190,
      "generated": 5191,
      "dig": 5192,
      "ried": 5193,
      "))))": 5194,
      "echanism": 5195,
      "Ġinitialization": 5196,
      "Ġsituations": 5197,
      "istor": 5198,
      "Ġcommonly": 5199,
      "escrib": 5200,
      "Ġdescribes": 5201,
      "Ġcontrols": 5202,
      "CTION": 5203,
      "Ph": 5204,
      "Ġproton": 5205,
      "Ġcolors": 5206,
      "mediate": 5207,
      "dx": 5208,
      "Ġsus": 5209,
      "ĠDNS": 5210,
      "Ġdrive": 5211,
      "Ġextreme": 5212,
      "Program": 5213,
      "blocks": 5214,
      "discuss": 5215,
      "sequently": 5216,
      "Not": 5217,
      "best": 5218,
      "wen": 5219,
      "Ġge": 5220,
      "served": 5221,
      "Ġguess": 5222,
      "follows": 5223,
      "inode": 5224,
      "thenumberof": 5225,
      "Ġselector": 5226,
      "Ġapproximate": 5227,
      "edbythe": 5228,
      "much": 5229,
      "onot": 5230,
      "ĠPattern": 5231,
      "Ġscore": 5232,
      "Ġtermin": 5233,
      "Ġattention": 5234,
      "inciples": 5235,
      "Ġinfinite": 5236,
      "Ġaccuracy": 5237,
      "atrix": 5238,
      "amount": 5239,
      "oss": 5240,
      "Ġkeyword": 5241,
      "ibrary": 5242,
      "ĠCal": 5243,
      "Ġcontained": 5244,
      "Ġoccurre": 5245,
      "ĠGraph": 5246,
      "hyper": 5247,
      "ofa": 5248,
      "fort": 5249,
      "Ġhel": 5250,
      "Ġplt": 5251,
      "apply": 5252,
      "Ġkeyboard": 5253,
      "thereis": 5254,
      "Ġsends": 5255,
      "See": 5256,
      "bust": 5257,
      "icon": 5258,
      "imits": 5259,
      "Ġgrow": 5260,
      "cident": 5261,
      "rule": 5262,
      "Ġlogistic": 5263,
      "Ġthemselves": 5264,
      "Ġdistin": 5265,
      "totype": 5266,
      "Ġmembers": 5267,
      "element": 5268,
      "Ġpressure": 5269,
      "lat": 5270,
      "actory": 5271,
      "expression": 5272,
      "layers": 5273,
      "hib": 5274,
      "actor": 5275,
      "ĠCPUs": 5276,
      "Ġtranslation": 5277,
      "ĠBas": 5278,
      "alling": 5279,
      "Ġwhenever": 5280,
      "Ġprobabilistic": 5281,
      "pha": 5282,
      "classes": 5283,
      "Comput": 5284,
      "Ġradiation": 5285,
      "Ġdot": 5286,
      "Ġseconds": 5287,
      "param": 5288,
      "ĠAtt": 5289,
      "apid": 5290,
      "being": 5291,
      "Ġsubsystem": 5292,
      "Ġrepeated": 5293,
      "however": 5294,
      "flu": 5295,
      "Ġnumerical": 5296,
      "atory": 5297,
      "ĠNFS": 5298,
      "Ġtrained": 5299,
      "Ġboolean": 5300,
      "READ": 5301,
      "Ġsubstit": 5302,
      "Ġmicro": 5303,
      "Ġrender": 5304,
      "impro": 5305,
      "Ġgiving": 5306,
      "irq": 5307,
      "ĠarXiv": 5308,
      "Ġprobabilities": 5309,
      "Ġproduced": 5310,
      "ocab": 5311,
      "multiple": 5312,
      "ambda": 5313,
      "bits": 5314,
      "itted": 5315,
      "Ġprocedures": 5316,
      "Ġassumption": 5317,
      "lin": 5318,
      "Ġtun": 5319,
      "Ġgit": 5320,
      "Ġ44": 5321,
      "Ġtempor": 5322,
      "Ġpractical": 5323,
      ",ï¿½ï¿½": 5324,
      "Ġssh": 5325,
      "Ġsources": 5326,
      "Ġsrc": 5327,
      "Ġcategor": 5328,
      "ĠRel": 5329,
      "Ġinitialized": 5330,
      "determ": 5331,
      "Ġsays": 5332,
      "environment": 5333,
      "Ġusername": 5334,
      "ersion": 5335,
      "Ġprotected": 5336,
      ")|": 5337,
      "Map": 5338,
      "child": 5339,
      "plain": 5340,
      "ĠInformation": 5341,
      "Ġ{%": 5342,
      "thesam": 5343,
      "ĠStandard": 5344,
      "php": 5345,
      "tune": 5346,
      "Ġstraightforward": 5347,
      "des": 5348,
      "zz": 5349,
      "plates": 5350,
      "factor": 5351,
      "></": 5352,
      "IV": 5353,
      "Ġcatch": 5354,
      "Ġnotice": 5355,
      "Ġestimation": 5356,
      "txt": 5357,
      "ĠVis": 5358,
      "Ġdeveloped": 5359,
      "Ġanalog": 5360,
      "pointer": 5361,
      "aprocess": 5362,
      "oltzmann": 5363,
      "prom": 5364,
      "ĠjQuery": 5365,
      "Ġviews": 5366,
      "ĠSecurity": 5367,
      "half": 5368,
      "language": 5369,
      "tg": 5370,
      "ationofthe": 5371,
      "ĠDir": 5372,
      "Ġdesired": 5373,
      "Ġregisters": 5374,
      "Ġpaging": 5375,
      "ĠRef": 5376,
      "ffers": 5377,
      "Ġscan": 5378,
      "ĠTHE": 5379,
      "Ġmentioned": 5380,
      "base": 5381,
      "ina": 5382,
      "ĠTCP": 5383,
      "Ġbehind": 5384,
      "ViewController": 5385,
      "Ġinterrupts": 5386,
      "original": 5387,
      "forcement": 5388,
      "+(": 5389,
      "GB": 5390,
      "mult": 5391,
      "Ġconcl": 5392,
      "web": 5393,
      "Ġdirected": 5394,
      "cur": 5395,
      "force": 5396,
      "ceptron": 5397,
      "Ġorigin": 5398,
      "Ġmind": 5399,
      "adata": 5400,
      "ford": 5401,
      "Ġadds": 5402,
      "Ġyourself": 5403,
      "ĠExamples": 5404,
      "Ġlogic": 5405,
      "AI": 5406,
      "ASE": 5407,
      "oret": 5408,
      "Ġopposite": 5409,
      "OT": 5410,
      "rb": 5411,
      "ycle": 5412,
      "unit": 5413,
      "Ġra": 5414,
      "ĠMAP": 5415,
      "Ġallowing": 5416,
      "Ġparticularly": 5417,
      "Ġsolid": 5418,
      "Ġdimension": 5419,
      "Ġdirections": 5420,
      "apart": 5421,
      "ĠProb": 5422,
      "undle": 5423,
      "instead": 5424,
      "Ġlocated": 5425,
      "programming": 5426,
      "Ġintroduce": 5427,
      "ĠPCA": 5428,
      "DF": 5429,
      "md": 5430,
      "ĠPost": 5431,
      "negative": 5432,
      "Ġ2006": 5433,
      "ivariate": 5434,
      "[]": 5435,
      "Ġair": 5436,
      "Ġage": 5437,
      "Ġfork": 5438,
      "Ġ00": 5439,
      "ĠNon": 5440,
      "Ġ48": 5441,
      "Ġpartial": 5442,
      "ĠExec": 5443,
      "interpre": 5444,
      "Ġpasses": 5445,
      "ydro": 5446,
      "uitive": 5447,
      "andwidth": 5448,
      "apl": 5449,
      "Ġleave": 5450,
      "Ġpacket": 5451,
      "Ġmathematical": 5452,
      "Ġmix": 5453,
      "Ġ1000": 5454,
      "Ġpathname": 5455,
      "Ġderivatives": 5456,
      "ĠRuby": 5457,
      ".:": 5458,
      "Ġinform": 5459,
      "ĠPress": 5460,
      "ceedings": 5461,
      "reshold": 5462,
      "Ġhorizont": 5463,
      "bi": 5464,
      "Ġsafe": 5465,
      "Ġfive": 5466,
      "Ġinser": 5467,
      "Ġkill": 5468,
      "Ġsparse": 5469,
      "Ġplug": 5470,
      "Ġcompletion": 5471,
      "Ġincrement": 5472,
      "ecessarily": 5473,
      "Ġinvolved": 5474,
      "Ġessentially": 5475,
      "RAM": 5476,
      "Ġfair": 5477,
      "Ġfundamental": 5478,
      "emand": 5479,
      "Ġlets": 5480,
      "develop": 5481,
      "Ġresol": 5482,
      "calcul": 5483,
      "processors": 5484,
      "pirical": 5485,
      "least": 5486,
      "Ġfront": 5487,
      "rot": 5488,
      "Ġlatter": 5489,
      "Ġstoch": 5490,
      "convolution": 5491,
      "Ġcreation": 5492,
      "default": 5493,
      "Ġnucle": 5494,
      "ograph": 5495,
      "Ġ..": 5496,
      "imply": 5497,
      "ĠScal": 5498,
      "ĠMan": 5499,
      "devices": 5500,
      "Ġneut": 5501,
      "Ġnonlinear": 5502,
      "Ġquantity": 5503,
      "ĠRecall": 5504,
      "Ġmolec": 5505,
      "Lo": 5506,
      "UP": 5507,
      "hown": 5508,
      "Ġbrief": 5509,
      "iments": 5510,
      "atever": 5511,
      "ignal": 5512,
      "optim": 5513,
      "MS": 5514,
      "pg": 5515,
      "ĠDjango": 5516,
      "ĠDirectory": 5517,
      "Ġoverall": 5518,
      "ĠPerl": 5519,
      "Ġvertical": 5520,
      "Ġareas": 5521,
      "Ġdepth": 5522,
      "update": 5523,
      "Ġsharing": 5524,
      "begin": 5525,
      "Ġrecurrent": 5526,
      "Argument": 5527,
      "sy": 5528,
      "Ġsix": 5529,
      "omin": 5530,
      "client": 5531,
      "techn": 5532,
      "},": 5533,
      "query": 5534,
      "ĠJust": 5535,
      "command": 5536,
      "ĠGoogle": 5537,
      "Ġuncertainty": 5538,
      "reng": 5539,
      "Ġmiddle": 5540,
      "iced": 5541,
      "Ġthrow": 5542,
      "ambridge": 5543,
      "Ġrelation": 5544,
      "ursor": 5545,
      "Ġblue": 5546,
      "Ġroutines": 5547,
      "ĠSYSTEMS": 5548,
      "Or": 5549,
      "true": 5550,
      "aswell": 5551,
      "Ġque": 5552,
      "Ġprimitive": 5553,
      "Ġmatches": 5554,
      "Ġhandles": 5555,
      "Ġmolecules": 5556,
      "Ġbalance": 5557,
      "expected": 5558,
      "isan": 5559,
      "priv": 5560,
      "Ġdocuments": 5561,
      "Ġinvoke": 5562,
      "(_": 5563,
      "Ġtend": 5564,
      "Ġupon": 5565,
      "plore": 5566,
      "Ġpict": 5567,
      "Ġradius": 5568,
      "ĠNULL": 5569,
      "ebooks": 5570,
      "pare": 5571,
      "zer": 5572,
      "repl": 5573,
      "usethe": 5574,
      "proc": 5575,
      "():": 5576,
      "Ġproviding": 5577,
      "Ġsites": 5578,
      "asc": 5579,
      "Ġprove": 5580,
      "compl": 5581,
      "regular": 5582,
      "PRO": 5583,
      "uck": 5584,
      "Ġsig": 5585,
      "Ġoffer": 5586,
      "Ġconduct": 5587,
      "Ġgenerator": 5588,
      "accur": 5589,
      "Ġproperly": 5590,
      "Ġbroad": 5591,
      "Se": 5592,
      "wave": 5593,
      "Ġhence": 5594,
      "Ġinsp": 5595,
      "Ġliter": 5596,
      "Ġapplies": 5597,
      "Ġquot": 5598,
      "required": 5599,
      "ĠOperating": 5600,
      ";}": 5601,
      "Ġpay": 5602,
      "Ġmal": 5603,
      "ĠSE": 5604,
      "ofan": 5605,
      "romagnetic": 5606,
      "Ġ500": 5607,
      "button": 5608,
      "Ġproduces": 5609,
      "Ġdefining": 5610,
      "buil": 5611,
      "However": 5612,
      "dt": 5613,
      "applications": 5614,
      "Ġpredictions": 5615,
      "earn": 5616,
      "Ġprice": 5617,
      "ymmet": 5618,
      "Ġsimpler": 5619,
      "ategory": 5620,
      "tow": 5621,
      "reason": 5622,
      "ĠWecan": 5623,
      "ĠRAID": 5624,
      "Ġrelevant": 5625,
      "Forexample": 5626,
      "Network": 5627,
      "Ġtcsh": 5628,
      "Ġsaved": 5629,
      "Ġphenomen": 5630,
      "behav": 5631,
      "Ġimplementing": 5632,
      "region": 5633,
      "visor": 5634,
      "vironments": 5635,
      "Ġcapture": 5636,
      "Ġfrequently": 5637,
      "Ġevaluate": 5638,
      "Ġiteration": 5639,
      "aunch": 5640,
      "intothe": 5641,
      "eting": 5642,
      "ĠMET": 5643,
      "ĠBl": 5644,
      "epoch": 5645,
      "register": 5646,
      "sequences": 5647,
      "ĠAPIs": 5648,
      "Ġstochastic": 5649,
      "ael": 5650,
      "onym": 5651,
      "ifically": 5652,
      "Ġmeas": 5653,
      "Ġ2013": 5654,
      "ITY": 5655,
      "Gr": 5656,
      "ishes": 5657,
      "leg": 5658,
      "Ġinverse": 5659,
      "Ġweak": 5660,
      "Ġpercent": 5661,
      "wehav": 5662,
      "frequ": 5663,
      "message": 5664,
      "python": 5665,
      "sothat": 5666,
      "ĠNumber": 5667,
      "Ġquestions": 5668,
      "Ġpolynomial": 5669,
      "Ġstudy": 5670,
      "Ġfeel": 5671,
      "uff": 5672,
      "aten": 5673,
      "Ġpseud": 5674,
      "eta": 5675,
      "ĠSometimes": 5676,
      "span": 5677,
      "Ġidentity": 5678,
      "ĠInte": 5679,
      "Ġcentral": 5680,
      "Ġcircum": 5681,
      "Ġpieces": 5682,
      "Memory": 5683,
      "mal": 5684,
      "small": 5685,
      "item": 5686,
      "ĠTrue": 5687,
      "ender": 5688,
      "Ġ&&": 5689,
      "Ġmoved": 5690,
      "Ġmetric": 5691,
      "azy": 5692,
      "Ġverify": 5693,
      "lation": 5694,
      "enge": 5695,
      "Ġdeli": 5696,
      "Ġscalar": 5697,
      "since": 5698,
      "xi": 5699,
      "loop": 5700,
      "ighest": 5701,
      "Ġusual": 5702,
      "Ġscenari": 5703,
      "content": 5704,
      "common": 5705,
      "Ġrefers": 5706,
      "EL": 5707,
      "cethe": 5708,
      "eigen": 5709,
      "ls": 5710,
      "adow": 5711,
      "ulator": 5712,
      "Ġ00000": 5713,
      "Ġneg": 5714,
      "Ġdecom": 5715,
      "Ġremaining": 5716,
      "Ġdetermined": 5717,
      "directed": 5718,
      "All": 5719,
      "Ġins": 5720,
      "avid": 5721,
      "coming": 5722,
      "fam": 5723,
      "jug": 5724,
      "ĠEng": 5725,
      "Ġperhaps": 5726,
      "Ġdecide": 5727,
      "maximum": 5728,
      "Ġwavelength": 5729,
      "Ġmaps": 5730,
      "Ġindu": 5731,
      "etail": 5732,
      "ĠCo": 5733,
      "ellig": 5734,
      "ĠConference": 5735,
      "Ġmagnitude": 5736,
      "rest": 5737,
      "Ġratio": 5738,
      "Ġ43": 5739,
      "Ġadjust": 5740,
      "Ġlogp": 5741,
      "Ġ128": 5742,
      "($": 5743,
      "del": 5744,
      "Ġ))": 5745,
      "Ġseems": 5746,
      "veloper": 5747,
      "Error": 5748,
      "hold": 5749,
      "exact": 5750,
      "ĠLanguage": 5751,
      "ĠAnal": 5752,
      "Ġfactory": 5753,
      "prior": 5754,
      "Ġinterested": 5755,
      "Ġsuccessful": 5756,
      "Ġdeclaration": 5757,
      "Book": 5758,
      "invok": 5759,
      "Ġey": 5760,
      "Ġonline": 5761,
      "append": 5762,
      "Ġgetting": 5763,
      "anguag": 5764,
      "Ġapplying": 5765,
      "Ġmatching": 5766,
      "Ġsimplest": 5767,
      "Image": 5768,
      "OD": 5769,
      "Up": 5770,
      "times": 5771,
      "Ġther": 5772,
      "Ġdrawn": 5773,
      "achin": 5774,
      "Ġenable": 5775,
      "equal": 5776,
      "Ġ................................................................": 5777,
      "ĠClick": 5778,
      "istinguish": 5779,
      "Ġ`": 5780,
      "oriented": 5781,
      "along": 5782,
      "plays": 5783,
      "())": 5784,
      "Ġenum": 5785,
      "Ġlogged": 5786,
      "Ġresponsible": 5787,
      "keep": 5788,
      "problems": 5789,
      "Ġwidely": 5790,
      "New": 5791,
      "Read": 5792,
      "refer": 5793,
      "Ġcompat": 5794,
      "Ġperforming": 5795,
      "ĠComputer": 5796,
      "MachineLearning": 5797,
      "But": 5798,
      "dd": 5799,
      "Ġmm": 5800,
      "ulating": 5801,
      "Ġdeclared": 5802,
      "aff": 5803,
      "either": 5804,
      "sm": 5805,
      "Ġtab": 5806,
      "Ġabstraction": 5807,
      "withrespect": 5808,
      "Ġalien": 5809,
      "Ġï¿½(": 5810,
      "Ġcompress": 5811,
      "ĠFlask": 5812,
      "Ġimagine": 5813,
      "]ï¿½": 5814,
      "claim": 5815,
      "Ġarithmetic": 5816,
      "tty": 5817,
      "Ġconstants": 5818,
      "Ġdefinite": 5819,
      "ramework": 5820,
      "Ġreplaced": 5821,
      "Ġexponential": 5822,
      "Ġreader": 5823,
      "Ġutilities": 5824,
      "Bu": 5825,
      "OC": 5826,
      "cost": 5827,
      "ĠEm": 5828,
      "ĠGu": 5829,
      "foreach": 5830,
      "olicies": 5831,
      "ferenced": 5832,
      "lower": 5833,
      "Ġ55": 5834,
      "Ġreset": 5835,
      "empty": 5836,
      "ĠDiscussion": 5837,
      "Ġderived": 5838,
      "Ġclustering": 5839,
      "adratic": 5840,
      "rength": 5841,
      "eep": 5842,
      "align": 5843,
      "ups": 5844,
      "ĠRed": 5845,
      "Ġgeneralization": 5846,
      "Ġparagraph": 5847,
      "hematics": 5848,
      "----------------": 5849,
      "Ind": 5850,
      "char": 5851,
      "Ġstreams": 5852,
      "ein": 5853,
      "Ġcs": 5854,
      "ewith": 5855,
      "Ġadvanced": 5856,
      "Fr": 5857,
      "Ġinner": 5858,
      "Ġbeyond": 5859,
      "ĠHome": 5860,
      "Ġinteraction": 5861,
      "Ġexpand": 5862,
      "PL": 5863,
      "rink": 5864,
      "whether": 5865,
      "anging": 5866,
      "Ġmodes": 5867,
      "oph": 5868,
      "shared": 5869,
      "Ġremains": 5870,
      "ategies": 5871,
      "Ġordinary": 5872,
      "pository": 5873,
      "itors": 5874,
      "Ġparam": 5875,
      "Ġspect": 5876,
      "Ġtrave": 5877,
      "ifications": 5878,
      "API": 5879,
      "Ġ>>>": 5880,
      "({": 5881,
      "orn": 5882,
      "rier": 5883,
      "Ġcycle": 5884,
      "Ġfloat": 5885,
      "ĠACL": 5886,
      "Ġteam": 5887,
      "cast": 5888,
      "Ġffff": 5889,
      "else": 5890,
      "Ġround": 5891,
      "Ġreceives": 5892,
      "Ġtreat": 5893,
      "PERATING": 5894,
      "09": 5895,
      "Ġresearch": 5896,
      "full": 5897,
      "relation": 5898,
      "currently": 5899,
      "constant": 5900,
      "changed": 5901,
      "AU": 5902,
      "Act": 5903,
      "Line": 5904,
      "yt": 5905,
      "inforcement": 5906,
      "states": 5907,
      "unication": 5908,
      "rip": 5909,
      "nection": 5910,
      "Ġloops": 5911,
      "bash": 5912,
      "Ġant": 5913,
      "util": 5914,
      "essions": 5915,
      "umes": 5916,
      "Ġexercise": 5917,
      "2023": 5918,
      "\":": 5919,
      "SL": 5920,
      "ationary": 5921,
      "Ġpropagation": 5922,
      "ĠStr": 5923,
      "ĠWrit": 5924,
      "Ġ52": 5925,
      "ĠVol": 5926,
      "ĠJS": 5927,
      "Ġpaths": 5928,
      "computer": 5929,
      "Ġcircuit": 5930,
      "ĠServer": 5931,
      "iloso": 5932,
      "ĠReturns": 5933,
      "What": 5934,
      "Ġmer": 5935,
      "Ġtoward": 5936,
      "shown": 5937,
      "ĠKB": 5938,
      "useful": 5939,
      "Ġchildren": 5940,
      "Ġacceleration": 5941,
      "Ġcrystal": 5942,
      "MC": 5943,
      "Ġmedi": 5944,
      "otentially": 5945,
      "ĠRo": 5946,
      "Ġentered": 5947,
      "Ġhighly": 5948,
      "ĠBuil": 5949,
      "Ġfig": 5950,
      "Ġhav": 5951,
      "ĠProof": 5952,
      "Ġcompleted": 5953,
      "Ġideal": 5954,
      "optimization": 5955,
      "Ġreceived": 5956,
      "Ġpipeline": 5957,
      "Be": 5958,
      "mask": 5959,
      "inetic": 5960,
      "Ġtouch": 5961,
      "ĠTLB": 5962,
      "Ġlabeled": 5963,
      "Ġ65": 5964,
      "Ġconfig": 5965,
      "Ġarchitectures": 5966,
      "Ġspecifying": 5967,
      "provides": 5968,
      "Ġcoordinate": 5969,
      "OF": 5970,
      "pa": 5971,
      "support": 5972,
      "edas": 5973,
      "Ġinthe": 5974,
      "Ġmanif": 5975,
      "Ġimplementations": 5976,
      "attention": 5977,
      "plicitly": 5978,
      "ĠNotice": 5979,
      "Ġfamiliar": 5980,
      "basis": 5981,
      "Number": 5982,
      "lish": 5983,
      "arsh": 5984,
      "Ġvir": 5985,
      "conc": 5986,
      "Ġ75": 5987,
      "phas": 5988,
      "sibility": 5989,
      "Ġjobs": 5990,
      "sup": 5991,
      "although": 5992,
      "Ġ(+": 5993,
      "ĠInitial": 5994,
      "Ġprinter": 5995,
      "Ġextends": 5996,
      "Ġincreased": 5997,
      "AND": 5998,
      "numbers": 5999,
      "ĠRunning": 6000,
      "Ġdaemon": 6001,
      "SH": 6002,
      "othe": 6003,
      "ĠRep": 6004,
      "Ġfunctional": 6005,
      "Ġmanner": 6006,
      "Inst": 6007,
      "definition": 6008,
      "Ġamplitudes": 6009,
      "Ġcomparison": 6010,
      "VD": 6011,
      "invol": 6012,
      "until": 6013,
      "ĠMin": 6014,
      "itself": 6015,
      "Ġgenerates": 6016,
      "Ġpoor": 6017,
      "Ġtechnology": 6018,
      "Ġinheritance": 6019,
      "course": 6020,
      "ĠSerial": 6021,
      "pli": 6022,
      "Ġassignment": 6023,
      "Ġsquared": 6024,
      "DP": 6025,
      "Ġpthread": 6026,
      "Ġptg": 6027,
      "ĠNE": 6028,
      "Ġboost": 6029,
      "usedto": 6030,
      "Ġconvert": 6031,
      "Sub": 6032,
      "good": 6033,
      "iev": 6034,
      "Ġandthe": 6035,
      "Ġproposed": 6036,
      "sex": 6037,
      "ĠEar": 6038,
      "Ġlost": 6039,
      "ĠHer": 6040,
      "ĠUIT": 6041,
      "Ġquality": 6042,
      "Ġextend": 6043,
      "Ġdescriptors": 6044,
      "Ġdifferences": 6045,
      "Ġrotation": 6046,
      "Ġsomewhat": 6047,
      "ethen": 6048,
      "essian": 6049,
      "ĠForexample": 6050,
      "avinci": 6051,
      "components": 6052,
      "Ġvariational": 6053,
      "Ġsynchronization": 6054,
      "Create": 6055,
      "ydrogen": 6056,
      "Col": 6057,
      "around": 6058,
      "Ġbug": 6059,
      "module": 6060,
      "Ġpurposes": 6061,
      "Ġclearly": 6062,
      "Ġminimize": 6063,
      "yg": 6064,
      "Ġnone": 6065,
      "ĠLE": 6066,
      "ĠBoltzmann": 6067,
      "Ġ51": 6068,
      "Ġsimultane": 6069,
      "forexample": 6070,
      "Ġsequences": 6071,
      "Ġprivileges": 6072,
      "associated": 6073,
      "Ġestabl": 6074,
      "acces": 6075,
      "ĠSm": 6076,
      "ĠLD": 6077,
      "ysics": 6078,
      "2014": 6079,
      "weare": 6080,
      "Ġrepeat": 6081,
      "Ġthroughout": 6082,
      "writing": 6083,
      "Product": 6084,
      "whenthe": 6085,
      "going": 6086,
      "scale": 6087,
      "Ġpenal": 6088,
      "bb": 6089,
      "final": 6090,
      "gate": 6091,
      "env": 6092,
      "tob": 6093,
      "Ġjump": 6094,
      "Ġelectro": 6095,
      "Ġmeasured": 6096,
      "Ġexplained": 6097,
      "University": 6098,
      "Ġnearly": 6099,
      "Month": 6100,
      "olog": 6101,
      "Ġpure": 6102,
      "Ġprogress": 6103,
      "ĠPA": 6104,
      "Ġnamely": 6105,
      "login": 6106,
      "Ġpositions": 6107,
      "kind": 6108,
      "reat": 6109,
      "iscalled": 6110,
      "Ġcursor": 6111,
      "Ġmut": 6112,
      "urb": 6113,
      "Ġchance": 6114,
      "bytes": 6115,
      "Ġmodeling": 6116,
      "Ġcombined": 6117,
      "Ms": 6118,
      "ĠPoint": 6119,
      "ichael": 6120,
      "args": 6121,
      "Ġroom": 6122,
      "Ġemacs": 6123,
      "Ġphoto": 6124,
      "Ġchecking": 6125,
      "ĠDeep": 6126,
      "Ġreleased": 6127,
      "Ġ<%=": 6128,
      "En": 6129,
      "ees": 6130,
      "null": 6131,
      "oling": 6132,
      "ĠRn": 6133,
      "ificial": 6134,
      "valueof": 6135,
      "Ġbranch": 6136,
      "Ġsummar": 6137,
      "Size": 6138,
      "crit": 6139,
      "Ġdx": 6140,
      "Ġ49": 6141,
      "theses": 6142,
      "Ġidle": 6143,
      "ĠNewton": 6144,
      "torch": 6145,
      "Log": 6146,
      "Ġ(*": 6147,
      "Ġcapabilities": 6148,
      "average": 6149,
      "zip": 6150,
      "Ġunknown": 6151,
      "Ġmultip": 6152,
      "aze": 6153,
      "Ġdiagonal": 6154,
      "Ġcouple": 6155,
      "GPU": 6156,
      "WW": 6157,
      "pet": 6158,
      "Ġcovered": 6159,
      "usive": 6160,
      "exper": 6161,
      "Ġbyte": 6162,
      "ĠNET": 6163,
      "Ġ95": 6164,
      "Ġentropy": 6165,
      "cannot": 6166,
      "Ġimportance": 6167,
      "Ġdestination": 6168,
      "Ġgravit": 6169,
      "copy": 6170,
      "itu": 6171,
      "itable": 6172,
      "Ġground": 6173,
      "umbers": 6174,
      "clust": 6175,
      "valued": 6176,
      "corpor": 6177,
      "Ġkeeps": 6178,
      "Ġessential": 6179,
      "Ġoverride": 6180,
      "Equals": 6181,
      "True": 6182,
      "ĠIEEE": 6183,
      "Ġexpansion": 6184,
      "prec": 6185,
      "ĠNetworks": 6186,
      "ĠWorking": 6187,
      "ĠMonte": 6188,
      "same": 6189,
      "Ġpe": 6190,
      "ĠEl": 6191,
      "Ġ46": 6192,
      "Ġprefix": 6193,
      "ifference": 6194,
      "Ġruntime": 6195,
      "ĠNotethat": 6196,
      "Ġmemo": 6197,
      "ĠLocal": 6198,
      "Ġsummary": 6199,
      "Ġdivided": 6200,
      "Hand": 6201,
      "four": 6202,
      "happ": 6203,
      "Ġrare": 6204,
      "Ġrapid": 6205,
      "ĠOPERATING": 6206,
      "Ġlogging": 6207,
      "Ġhandled": 6208,
      "willbe": 6209,
      "Ġignore": 6210,
      "Ġrecommend": 6211,
      "Ġgeomet": 6212,
      "wide": 6213,
      "ani": 6214,
      "Ġdistrib": 6215,
      "formance": 6216,
      "Ġ\"\"\"": 6217,
      "analysis": 6218,
      "ULT": 6219,
      "onymous": 6220,
      "aul": 6221,
      "enter": 6222,
      "ĠMap": 6223,
      "Ġ);": 6224,
      "Ġdetection": 6225,
      "Ġends": 6226,
      "Ġexpressed": 6227,
      "Ġclusters": 6228,
      "Ġprecision": 6229,
      "Ġconstraint": 6230,
      "filter": 6231,
      "Ġfinished": 6232,
      "still": 6233,
      "andid": 6234,
      "essages": 6235,
      "Ġdetailed": 6236,
      "Ġcurrents": 6237,
      "ublished": 6238,
      "execution": 6239,
      "ĠassertEquals": 6240,
      "Ġsmooth": 6241,
      "Ġtries": 6242,
      "atial": 6243,
      "Ġpan": 6244,
      "appear": 6245,
      "Ġchapters": 6246,
      "Ġguest": 6247,
      "Ġportion": 6248,
      "Ġevaluation": 6249,
      "iate": 6250,
      "paper": 6251,
      "rays": 6252,
      "ze": 6253,
      "Ġrepository": 6254,
      "Ġaltern": 6255,
      "elling": 6256,
      "Ġrough": 6257,
      "Ġvirtualization": 6258,
      "views": 6259,
      "ternatively": 6260,
      "icroposts": 6261,
      "Ġexamine": 6262,
      "untu": 6263,
      "draw": 6264,
      "fail": 6265,
      "Ġreverse": 6266,
      "olding": 6267,
      "Ġsetup": 6268,
      "architecture": 6269,
      "fficiency": 6270,
      "Ġpresented": 6271,
      "continued": 6272,
      "Ġdelay": 6273,
      "Each": 6274,
      "moment": 6275,
      "isen": 6276,
      "always": 6277,
      "Ġwff": 6278,
      "Ġmir": 6279,
      "ented": 6280,
      "account": 6281,
      "ills": 6282,
      "ĠIndeed": 6283,
      "Ġdetermines": 6284,
      "Ġhelpful": 6285,
      "Ġediting": 6286,
      "Ġrelationships": 6287,
      "squares": 6288,
      "={": 6289,
      "Po": 6290,
      "mutex": 6291,
      "ratch": 6292,
      "iny": 6293,
      "Ġindeed": 6294,
      "energ": 6295,
      "Ġintern": 6296,
      "Ġ2010": 6297,
      "Ġcompression": 6298,
      "Ġrouter": 6299,
      "Ġreplacement": 6300,
      "ativ": 6301,
      "ĠPass": 6302,
      "avoid": 6303,
      "Ġheap": 6304,
      "rollers": 6305,
      "Ġeffectively": 6306,
      "thereare": 6307,
      "Ġidentifier": 6308,
      "Ġassumed": 6309,
      "Ġpresence": 6310,
      "Ġmolecule": 6311,
      "TLB": 6312,
      "pi": 6313,
      "Ġmouse": 6314,
      "etof": 6315,
      "chann": 6316,
      "plane": 6317,
      "ĠML": 6318,
      "Ġappend": 6319,
      "click": 6320,
      "oken": 6321,
      "ashion": 6322,
      "Ġreasonable": 6323,
      "Ġhosts": 6324,
      "Ġrecognition": 6325,
      "ĠOutput": 6326,
      "ellow": 6327,
      "Ġdegree": 6328,
      "Ġenumer": 6329,
      "Ġedges": 6330,
      "Ġ256": 6331,
      "ĠOnly": 6332,
      "Ġ!=": 6333,
      "details": 6334,
      "Ġsemant": 6335,
      "Ġthought": 6336,
      "ĠGeneral": 6337,
      "Ġconfigured": 6338,
      "jugate": 6339,
      "Text": 6340,
      "ctl": 6341,
      "ĠDOM": 6342,
      "Ġtrig": 6343,
      "service": 6344,
      "awk": 6345,
      "Ġrepresentations": 6346,
      "Ġ2009": 6347,
      "ĠDisplays": 6348,
      "Add": 6349,
      "\"\"\"": 6350,
      "Neural": 6351,
      "tures": 6352,
      "Ġcp": 6353,
      "quire": 6354,
      "ĠEX": 6355,
      "ĠInvok": 6356,
      "combin": 6357,
      "othis": 6358,
      "ĠUsers": 6359,
      "IPS": 6360,
      "Ġdeadlock": 6361,
      "aro": 6362,
      "ta": 6363,
      "tensor": 6364,
      "Ġisthe": 6365,
      "quality": 6366,
      "Ġspread": 6367,
      "Ġ+=": 6368,
      "Ġcompil": 6369,
      "Ġoffers": 6370,
      "etermin": 6371,
      "ĠDescription": 6372,
      "TL": 6373,
      "want": 6374,
      "ativity": 6375,
      "Ġlimits": 6376,
      "Ġimpossible": 6377,
      "objects": 6378,
      "ABLE": 6379,
      "ĠAddress": 6380,
      "activation": 6381,
      "Ġregistry": 6382,
      "Then": 6383,
      "cceed": 6384,
      "ien": 6385,
      "vents": 6386,
      "height": 6387,
      "Ġlen": 6388,
      "Ġinteractive": 6389,
      "UN": 6390,
      "stances": 6391,
      "ĠError": 6392,
      "arethe": 6393,
      "below": 6394,
      "ĠExplore": 6395,
      "Ġequals": 6396,
      "Ġsubsequent": 6397,
      "Ġwants": 6398,
      "Stream": 6399,
      "Ġtechnical": 6400,
      "ĠBoot": 6401,
      "Ġabsor": 6402,
      "BN": 6403,
      "davinci": 6404,
      "joint": 6405,
      "mes": 6406,
      "types": 6407,
      "rew": 6408,
      "Ġdiffer": 6409,
      "Ġ/>": 6410,
      "Ġgrid": 6411,
      "Ġknows": 6412,
      "scheduling": 6413,
      "Ġtemplates": 6414,
      "Ġlocks": 6415,
      "covery": 6416,
      "Ġexceptions": 6417,
      "Ġtags": 6418,
      "close": 6419,
      ")),": 6420,
      "Mark": 6421,
      "better": 6422,
      "few": 6423,
      "ube": 6424,
      "once": 6425,
      "Ġ300": 6426,
      "idea": 6427,
      "Ġdesktop": 6428,
      "Ġenables": 6429,
      "Ġenabled": 6430,
      "imension": 6431,
      "config": 6432,
      "Ġhorizontal": 6433,
      "Oper": 6434,
      "sam": 6435,
      "Ġfavor": 6436,
      "Ġinsert": 6437,
      "ĠInput": 6438,
      "Ġsear": 6439,
      "oku": 6440,
      "Inter": 6441,
      "Ġinvari": 6442,
      "Ġdependency": 6443,
      "Ġillustrates": 6444,
      "electric": 6445,
      "approximation": 6446,
      "cd": 6447,
      "fault": 6448,
      "lements": 6449,
      "Ġfails": 6450,
      "astructure": 6451,
      "Ġsimplicity": 6452,
      "build": 6453,
      "Ġcells": 6454,
      "Ġviol": 6455,
      "Discussion": 6456,
      "Index": 6457,
      "Eq": 6458,
      "VERS": 6459,
      "With": 6460,
      "entropy": 6461,
      "ĠTerm": 6462,
      "ĠHard": 6463,
      "oneofthe": 6464,
      "Ġintegers": 6465,
      "success": 6466,
      "Stat": 6467,
      "loaded": 6468,
      "tasks": 6469,
      "gives": 6470,
      "makes": 6471,
      "amma": 6472,
      "otos": 6473,
      "Ġstar": 6474,
      "ĠLayout": 6475,
      "ĠRBM": 6476,
      "Ġimplies": 6477,
      "128": 6478,
      "Ġserve": 6479,
      "Ġdrives": 6480,
      "Thus": 6481,
      "Ġpackets": 6482,
      "dependent": 6483,
      "ij": 6484,
      "takes": 6485,
      "upt": 6486,
      "Ġtick": 6487,
      "except": 6488,
      "ffff": 6489,
      "Ġ97": 6490,
      "match": 6491,
      "Ġelectrical": 6492,
      "ĠWhich": 6493,
      "Ġsemaphore": 6494,
      "marg": 6495,
      "ĠSource": 6496,
      "eneral": 6497,
      "try": 6498,
      "Ġroutes": 6499,
      "everal": 6500,
      "Ġkept": 6501,
      "Ġdecay": 6502,
      "Ġletters": 6503,
      "Ġtopics": 6504,
      "Ġrouting": 6505,
      "Ġdenote": 6506,
      "Ġmechanisms": 6507,
      "ĠTraining": 6508,
      "ĠSpecifically": 6509,
      "Ġcombine": 6510,
      "GR": 6511,
      "Pre": 6512,
      "Ġtrust": 6513,
      "oull": 6514,
      "amil": 6515,
      "Ġvend": 6516,
      "apshot": 6517,
      "ĠEvent": 6518,
      "Ġpreempt": 6519,
      "2020": 6520,
      "Ġgrad": 6521,
      "Reg": 6522,
      "Ġsupervised": 6523,
      "Ġsheet": 6524,
      "At": 6525,
      "URL": 6526,
      "Ġfire": 6527,
      "Ġlive": 6528,
      "ĠCD": 6529,
      "ĠDon": 6530,
      "Ġadv": 6531,
      "Ġ['": 6532,
      "Ġbooks": 6533,
      "Ġpasswords": 6534,
      "domain": 6535,
      "ean": 6536,
      "fd": 6537,
      "already": 6538,
      "Ġmist": 6539,
      "stop": 6540,
      "entire": 6541,
      "Ġisol": 6542,
      "ĠPar": 6543,
      "2015": 6544,
      "diag": 6545,
      "pective": 6546,
      "measure": 6547,
      "Ġfragment": 6548,
      "Ġderive": 6549,
      "Ġsurpr": 6550,
      "Ġpredicted": 6551,
      "ĠCarlo": 6552,
      "css": 6553,
      "rics": 6554,
      "vision": 6555,
      "ethere": 6556,
      "rium": 6557,
      "ĠDE": 6558,
      "ĠIts": 6559,
      "interms": 6560,
      "Ġcoefficients": 6561,
      "Ġmarks": 6562,
      "provide": 6563,
      "ĠPointer": 6564,
      "mount": 6565,
      "ĠSH": 6566,
      "ĠRandom": 6567,
      "Ġclaim": 6568,
      "Ġgradients": 6569,
      "binary": 6570,
      "Ġbegins": 6571,
      "Ġbelief": 6572,
      "GD": 6573,
      "Per": 6574,
      "softhe": 6575,
      "aling": 6576,
      "ications": 6577,
      "oders": 6578,
      "Ġshift": 6579,
      "argument": 6580,
      "2010": 6581,
      "ĠItis": 6582,
      "Ġchecked": 6583,
      "ĠMethods": 6584,
      "So": 6585,
      "ql": 6586,
      "sig": 6587,
      "Ġpid": 6588,
      "Ġgot": 6589,
      "project": 6590,
      "trained": 6591,
      "Ġspecification": 6592,
      "Ġstatistical": 6593,
      "ROM": 6594,
      "loading": 6595,
      "Ġevaluated": 6596,
      "ĠOtherwise": 6597,
      "Ġcyl": 6598,
      "Ġattempts": 6599,
      "Ġproceed": 6600,
      "Ġworked": 6601,
      "created": 6602,
      "engio": 6603,
      "offset": 6604,
      "ĠEnter": 6605,
      "Ġsatisfy": 6606,
      "Ġpixel": 6607,
      "entr": 6608,
      "ĠFOR": 6609,
      "ĠPI": 6610,
      "Ġbuiltin": 6611,
      "ĠMoreover": 6612,
      "ĠActive": 6613,
      "./": 6614,
      "Mat": 6615,
      "Ġsigmoid": 6616,
      "Ġcoming": 6617,
      "Ġsomeone": 6618,
      "Ġoverview": 6619,
      "speed": 6620,
      "rolling": 6621,
      "Ġobserve": 6622,
      "EEP": 6623,
      "LOC": 6624,
      "Ġmonitoring": 6625,
      "Ġpicture": 6626,
      "Day": 6627,
      "Sch": 6628,
      "numberof": 6629,
      "lots": 6630,
      "Ġrank": 6631,
      "numer": 6632,
      "Ġprotect": 6633,
      "ĠIRP": 6634,
      "Ġorthogonal": 6635,
      "fac": 6636,
      "Ġparen": 6637,
      "together": 6638,
      "protocol": 6639,
      "notation": 6640,
      "Ġstartup": 6641,
      "swap": 6642,
      "Ġtwice": 6643,
      "pp": 6644,
      "}.": 6645,
      "Ġpython": 6646,
      "aby": 6647,
      "abling": 6648,
      "ĠCor": 6649,
      "atingthe": 6650,
      "Ġ++": 6651,
      "via": 6652,
      "away": 6653,
      "Ġmarked": 6654,
      "ĠIPv": 6655,
      "Ġcapacity": 6656,
      "ĠExplorer": 6657,
      "density": 6658,
      "lers": 6659,
      "isa": 6660,
      "Ġadopt": 6661,
      "125": 6662,
      "Ġ});": 6663,
      "Ġempirical": 6664,
      "Ġhelps": 6665,
      "Ġmultic": 6666,
      "iversal": 6667,
      "ĠModels": 6668,
      "Ġmedia": 6669,
      "ilib": 6670,
      "emble": 6671,
      "Ġproc": 6672,
      "Ġproxy": 6673,
      "Ġstrength": 6674,
      "three": 6675,
      "ĠWWW": 6676,
      "Ġunsupervised": 6677,
      "arameter": 6678,
      "ORY": 6679,
      "REE": 6680,
      "Ġlocations": 6681,
      "computation": 6682,
      "programs": 6683,
      "Ġclosely": 6684,
      "Car": 6685,
      "Ġfinally": 6686,
      "Ġthrows": 6687,
      "izethe": 6688,
      "estep": 6689,
      "allocated": 6690,
      "Ġplayer": 6691,
      "Ġleads": 6692,
      "Ġleading": 6693,
      "Ġbusiness": 6694,
      "Ġbenefit": 6695,
      "imag": 6696,
      "resources": 6697,
      "ĠMA": 6698,
      "ĠDEEP": 6699,
      "ĠVer": 6700,
      "Ġwebsite": 6701,
      "ĠProcesses": 6702,
      "Ġtrees": 6703,
      "Ġchannel": 6704,
      "Field": 6705,
      "Type": 6706,
      "bign": 6707,
      "nodes": 6708,
      "pict": 6709,
      "tag": 6710,
      "Ġaw": 6711,
      "asfollows": 6712,
      "Ġhit": 6713,
      "ĠNone": 6714,
      "ĠArray": 6715,
      "Ġlargest": 6716,
      "ĠBoolean": 6717,
      "Ġdestroy": 6718,
      "becausethe": 6719,
      "purpose": 6720,
      "cy": 6721,
      "rece": 6722,
      "ataset": 6723,
      "procedures": 6724,
      "ĠDep": 6725,
      "Ġdeclare": 6726,
      "ilibrium": 6727,
      "greg": 6728,
      "Ġmk": 6729,
      "omb": 6730,
      "ĠId": 6731,
      "ĠClear": 6732,
      "Ġemploy": 6733,
      "Ġseparated": 6734,
      "Ġblank": 6735,
      "electron": 6736,
      "ĠHeroku": 6737,
      "VERSION": 6738,
      "Ġcut": 6739,
      "lease": 6740,
      "stra": 6741,
      "Ġstrict": 6742,
      "character": 6743,
      "ĠMB": 6744,
      "ĠLearn": 6745,
      "ĠBlock": 6746,
      "appings": 6747,
      "SSE": 6748,
      "ATA": 6749,
      "Ġinitialize": 6750,
      "Exercise": 6751,
      "particle": 6752,
      "Ġworry": 6753,
      "Ġreduced": 6754,
      "Ġdefinitions": 6755,
      "ĠSetting": 6756,
      ".\"\"\"": 6757,
      "Ġcard": 6758,
      "Ġcodes": 6759,
      "Ġinject": 6760,
      "Ġraw": 6761,
      "convex": 6762,
      "interval": 6763,
      "Ġconsum": 6764,
      "pecial": 6765,
      "Ġsolving": 6766,
      "Ġbrack": 6767,
      "flags": 6768,
      "Ġflexible": 6769,
      "Ġaspects": 6770,
      "112": 6771,
      "CON": 6772,
      "March": 6773,
      "Ġmobile": 6774,
      "Ġli": 6775,
      "ĠDraft": 6776,
      "Ġqueries": 6777,
      "Ġexpensive": 6778,
      "Ġ)(": 6779,
      "iguration": 6780,
      "weights": 6781,
      "elements": 6782,
      "Ġcarefully": 6783,
      "Ġmounted": 6784,
      "Ġsymmetric": 6785,
      "property": 6786,
      "Ġeffort": 6787,
      "Wh": 6788,
      "rt": 6789,
      "sive": 6790,
      "Ġfall": 6791,
      "uniform": 6792,
      "question": 6793,
      "ĠGroup": 6794,
      "byte": 6795,
      "Ġtyped": 6796,
      "Ġintensity": 6797,
      "Ġconstruction": 6798,
      "systemcall": 6799,
      "ugg": 6800,
      "Ġopening": 6801,
      "organ": 6802,
      "connect": 6803,
      "cellent": 6804,
      "Ġprecisely": 6805,
      "Element": 6806,
      "cdr": 6807,
      "solution": 6808,
      "uction": 6809,
      "erve": 6810,
      "Ġfolder": 6811,
      "Ġdialog": 6812,
      "early": 6813,
      "Ġsymbols": 6814,
      "betweenthe": 6815,
      "Systems": 6816,
      "cover": 6817,
      "iation": 6818,
      "Ġwarning": 6819,
      "123": 6820,
      "Ġaccessing": 6821,
      "Ġstandards": 6822,
      "Ġports": 6823,
      "ymbol": 6824,
      "hot": 6825,
      "inx": 6826,
      "isher": 6827,
      "lete": 6828,
      "Ġments": 6829,
      "Ġnecessarily": 6830,
      "Ġconservation": 6831,
      "Ġkinetic": 6832,
      "ĠCompar": 6833,
      "256": 6834,
      "therefore": 6835,
      "structures": 6836,
      "eek": 6837,
      "Ġexplan": 6838,
      "frastructure": 6839,
      "Ġillustrate": 6840,
      "answer": 6841,
      "ingly": 6842,
      "fork": 6843,
      "erely": 6844,
      "ibl": 6845,
      "Ġswit": 6846,
      "Ġassigns": 6847,
      "Ġorganization": 6848,
      "connected": 6849,
      "Ġdimensionality": 6850,
      "Ġconvention": 6851,
      "people": 6852,
      "attr": 6853,
      "Ġcoding": 6854,
      "ales": 6855,
      "Ġfd": 6856,
      "stud": 6857,
      "akethe": 6858,
      "Ġ512": 6859,
      "Ġgenerative": 6860,
      "ĠAddition": 6861,
      "Ġlearner": 6862,
      "Ġallocate": 6863,
      "Ġassumptions": 6864,
      "Ġboxes": 6865,
      "Ġinstallation": 6866,
      "Ġaccurate": 6867,
      "Ġsequential": 6868,
      "dy": 6869,
      "necessary": 6870,
      "lections": 6871,
      "Ġhar": 6872,
      "ĠGe": 6873,
      "Ġ63": 6874,
      "Ġcompile": 6875,
      "ĠWithout": 6876,
      "Ġautoencoder": 6877,
      "OSTEP": 6878,
      "Ġextremely": 6879,
      "FA": 6880,
      "Linear": 6881,
      "units": 6882,
      "2021": 6883,
      "Ġprincipal": 6884,
      "aphores": 6885,
      "ocument": 6886,
      "Ġinvoking": 6887,
      "Ġcarry": 6888,
      "Ġnumeric": 6889,
      "arshal": 6890,
      "med": 6891,
      "Ġcult": 6892,
      "arithm": 6893,
      "Ġbi": 6894,
      "oub": 6895,
      "ury": 6896,
      "ĠLink": 6897,
      "Ġheav": 6898,
      "ynchronization": 6899,
      "Ġdebugger": 6900,
      "Ġadministrator": 6901,
      "ologies": 6902,
      "energies": 6903,
      "sample": 6904,
      "Ġtro": 6905,
      "Ġwhite": 6906,
      "ports": 6907,
      "erring": 6908,
      "Ġdependent": 6909,
      "total": 6910,
      "Ġaxes": 6911,
      "Ġachieved": 6912,
      "power": 6913,
      "Ġpaper": 6914,
      "Ġbin": 6915,
      "Ġnative": 6916,
      "imate": 6917,
      "arenot": 6918,
      "ĠDLL": 6919,
      "ichlet": 6920,
      "ĠRev": 6921,
      "creen": 6922,
      "Ġfinds": 6923,
      "Ġlinearly": 6924,
      "ART": 6925,
      "Ġdetermin": 6926,
      "needed": 6927,
      "Ġefficiently": 6928,
      "json": 6929,
      "pling": 6930,
      "berg": 6931,
      "cience": 6932,
      "Ġ2014": 6933,
      "Ġdynamically": 6934,
      "amilton": 6935,
      "bigniew": 6936,
      "Count": 6937,
      "ract": 6938,
      "enough": 6939,
      "Ġpending": 6940,
      "Ġhundred": 6941,
      "00000": 6942,
      "icek": 6943,
      "Ġblocked": 6944,
      "Ġdescribing": 6945,
      "afew": 6946,
      "Ġelim": 6947,
      "useof": 6948,
      "ĠNETWOR": 6949,
      "Demo": 6950,
      "Hello": 6951,
      "afile": 6952,
      "iscuss": 6953,
      "ctor": 6954,
      "Ġtokens": 6955,
      "elines": 6956,
      "ĠAR": 6957,
      "ourne": 6958,
      "ĠGUI": 6959,
      "Ġevidence": 6960,
      "116": 6961,
      "observed": 6962,
      "Ġdifferential": 6963,
      "Intern": 6964,
      "ĠAlternatively": 6965,
      "Ġkeeping": 6966,
      "Ġdiscr": 6967,
      "waiting": 6968,
      "IFO": 6969,
      "Ficek": 6970,
      "Manag": 6971,
      "Path": 6972,
      "isgivenby": 6973,
      "Ġpull": 6974,
      "Ġinflu": 6975,
      "idual": 6976,
      "Ġï¿½,": 6977,
      "ĠLine": 6978,
      "contents": 6979,
      "ĠArt": 6980,
      "Ġprotocols": 6981,
      "UD": 6982,
      "mov": 6983,
      "Ġrm": 6984,
      "Ġ85": 6985,
      "Ġenvironments": 6986,
      "Ġsending": 6987,
      "Ġfrequencies": 6988,
      "Ġobservable": 6989,
      "Ġdigits": 6990,
      "Ġlife": 6991,
      "embly": 6992,
      "elligence": 6993,
      "'>": 6994,
      "vm": 6995,
      "Ġpotentially": 6996,
      "Ġeld": 6997,
      "ĠMain": 6998,
      "erent": 6999,
      "Ġ53": 7000,
      "ructures": 7001,
      "ĠStudio": 7002,
      "IND": 7003,
      "Ġflash": 7004,
      "ĠReact": 7005,
      "Request": 7006,
      "inputs": 7007,
      "nn": 7008,
      "oes": 7009,
      "Ġcook": 7010,
      "Ġpa": 7011,
      "thet": 7012,
      "thefollowing": 7013,
      "Ġbeam": 7014,
      "plearning": 7015,
      "ĠBer": 7016,
      "122": 7017,
      "2011": 7018,
      "paget": 7019,
      "Ġearth": 7020,
      "enseof": 7021,
      "Ġadministrators": 7022,
      "'ll": 7023,
      "uccess": 7024,
      "Ġsam": 7025,
      "rok": 7026,
      "idget": 7027,
      "ĠSingle": 7028,
      "plan": 7029,
      "ĠDev": 7030,
      "Ġ61": 7031,
      "Ġenv": 7032,
      "Ġpointed": 7033,
      "Ġcontinues": 7034,
      "Ġreduces": 7035,
      "ancy": 7036,
      "provid": 7037,
      "Ġcommunicate": 7038,
      "Ed": 7039,
      "cat": 7040,
      "Ġaff": 7041,
      "Ġwatch": 7042,
      "advantage": 7043,
      "Ġcanvas": 7044,
      "Ġwhatever": 7045,
      "indic": 7046,
      "Ġneur": 7047,
      "Ġ67": 7048,
      "viation": 7049,
      "ĠUniversity": 7050,
      "ARN": 7051,
      "RA": 7052,
      "Sock": 7053,
      "hash": 7054,
      "rad": 7055,
      "Ġinline": 7056,
      "imp": 7057,
      "agn": 7058,
      "Ġstationary": 7059,
      "Ġ56": 7060,
      "ops": 7061,
      "ĠStud": 7062,
      "directly": 7063,
      "ĠMachineLearning": 7064,
      "ophistic": 7065,
      "ih": 7066,
      "oration": 7067,
      "thefirst": 7068,
      "ĠTask": 7069,
      "Ġalgebra": 7070,
      "ĠFeat": 7071,
      "ĠLike": 7072,
      "osp": 7073,
      "Ġ54": 7074,
      "herent": 7075,
      "Ġ99": 7076,
      "Ġgenerating": 7077,
      "Ġvolt": 7078,
      "Ġwrap": 7079,
      "ĠCalcul": 7080,
      ".\"": 7081,
      "bottom": 7082,
      "fixed": 7083,
      "later": 7084,
      "oe": 7085,
      "send": 7086,
      "enames": 7087,
      "Ġhighest": 7088,
      "ĠSVM": 7089,
      "ĠProm": 7090,
      "ĠDraw": 7091,
      "Ġ59": 7092,
      "Ġcred": 7093,
      "ĠPropert": 7094,
      "ĠZbigniew": 7095,
      "Ġhighlight": 7096,
      "econds": 7097,
      "ĠMean": 7098,
      "weneed": 7099,
      "ca": 7100,
      "drop": 7101,
      "fill": 7102,
      "potential": 7103,
      "ĠTop": 7104,
      "Ġaren": 7105,
      "ĠLook": 7106,
      "Ġadapt": 7107,
      "());": 7108,
      "optimal": 7109,
      "changes": 7110,
      "properties": 7111,
      "anguagemodel": 7112,
      "aver": 7113,
      "pid": 7114,
      "edit": 7115,
      "edinthe": 7116,
      "stit": 7117,
      "Ġthous": 7118,
      "amin": 7119,
      "acent": 7120,
      "ĠFort": 7121,
      "ĠDi": 7122,
      "Ġclone": 7123,
      "ĠCho": 7124,
      "ĠJohn": 7125,
      "Ġkernels": 7126,
      "PUT": 7127,
      "Ġconfirm": 7128,
      "Ġ255": 7129,
      "Ġobserver": 7130,
      "Context": 7131,
      "Ġaccounts": 7132,
      "ASY": 7133,
      "autom": 7134,
      "Ġcaused": 7135,
      "steps": 7136,
      "Ġsignificantly": 7137,
      "Ġanalogous": 7138,
      "FO": 7139,
      "ba": 7140,
      "kit": 7141,
      "atures": 7142,
      "Ġmand": 7143,
      "ethed": 7144,
      "Ġ68": 7145,
      "settings": 7146,
      "Ġsupply": 7147,
      "Ġupdating": 7148,
      "Ġentirely": 7149,
      "allocation": 7150,
      "auth": 7151,
      "Ġinitially": 7152,
      "aaaa": 7153,
      "losed": 7154,
      "ĠVariables": 7155,
      "Ġaudio": 7156,
      "alog": 7157,
      "several": 7158,
      "ĠWhere": 7159,
      "Ġundirected": 7160,
      "irected": 7161,
      "every": 7162,
      "spaces": 7163,
      "enges": 7164,
      "controller": 7165,
      "ugment": 7166,
      "doc": 7167,
      "2009": 7168,
      "foo": 7169,
      "choice": 7170,
      "Ġskip": 7171,
      "Ġpersonal": 7172,
      "Ġyields": 7173,
      "epochs": 7174,
      "mapped": 7175,
      "uge": 7176,
      "Ġtothe": 7177,
      "asmall": 7178,
      "Ġnor": 7179,
      "Ġhydrogen": 7180,
      "Ġgain": 7181,
      "Ġexpert": 7182,
      "ĠPAT": 7183,
      "Ġvariation": 7184,
      "prediction": 7185,
      "Ġfewer": 7186,
      "equality": 7187,
      "Ġcommunity": 7188,
      "basic": 7189,
      "Ġanalyze": 7190,
      "Ġcategories": 7191,
      "Ġpseudo": 7192,
      "LM": 7193,
      "lambda": 7194,
      "ï¿½).": 7195,
      "uss": 7196,
      "andthus": 7197,
      "those": 7198,
      "ĠFalse": 7199,
      "ĠWindow": 7200,
      "Ġjournal": 7201,
      "ĠIfthe": 7202,
      "Ġ2016": 7203,
      "Ġgraphics": 7204,
      "Ġcareful": 7205,
      "Ġangles": 7206,
      "oretical": 7207,
      "ĠMETA": 7208,
      "fin": 7209,
      "yes": 7210,
      "Ġmigr": 7211,
      "asystem": 7212,
      "theless": 7213,
      "ĠFollow": 7214,
      "ĠField": 7215,
      "ĠPTE": 7216,
      "izable": 7217,
      "Ġheld": 7218,
      "ught": 7219,
      "Ġminimal": 7220,
      "Ġgraphs": 7221,
      "ĠArgs": 7222,
      "Ġcalculated": 7223,
      "frames": 7224,
      "Ġcircle": 7225,
      "machinelearning": 7226,
      "Ġqueues": 7227,
      "otion": 7228,
      "Ġrobust": 7229,
      "thesecond": 7230,
      "Ġaccessible": 7231,
      "ifficult": 7232,
      "Ġreleases": 7233,
      "Ġintegration": 7234,
      "Ġnormalization": 7235,
      "validation": 7236,
      "respectively": 7237,
      "ĠOptions": 7238,
      "eri": 7239,
      "ashes": 7240,
      "asimple": 7241,
      "ĠCur": 7242,
      "acts": 7243,
      "Ġadvantages": 7244,
      "Ġ76": 7245,
      "114": 7246,
      "Ġoverhead": 7247,
      "Ġacts": 7248,
      "Ġdatasets": 7249,
      "ĠImag": 7250,
      "Ġbring": 7251,
      "ognition": 7252,
      "Ġdenoted": 7253,
      "Ġembedded": 7254,
      "Ġnavigation": 7255,
      "').": 7256,
      "1000": 7257,
      "FC": 7258,
      "QU": 7259,
      "fetch": 7260,
      "lor": 7261,
      "Ġfun": 7262,
      "Ġexchange": 7263,
      "think": 7264,
      "ewrit": 7265,
      "illi": 7266,
      "Ġsocket": 7267,
      "ryption": 7268,
      "swer": 7269,
      "ORG": 7270,
      "aboutthe": 7271,
      "bere": 7272,
      "Ġefficiency": 7273,
      "ĠAc": 7274,
      "ĠPID": 7275,
      "thenext": 7276,
      "various": 7277,
      "Ġloader": 7278,
      "Ġencour": 7279,
      "Ġrestart": 7280,
      "ynamics": 7281,
      "Ġsolved": 7282,
      "handle": 7283,
      "Ġbenefits": 7284,
      "introduced": 7285,
      "HTML": 7286,
      "LA": 7287,
      "Ġintr": 7288,
      "icious": 7289,
      "Ġhyp": 7290,
      "Ġ77": 7291,
      "124": 7292,
      "ingset": 7293,
      "Ġcopied": 7294,
      "Dec": 7295,
      "vals": 7296,
      "icial": 7297,
      "asa": 7298,
      "Ġ400": 7299,
      "Ġsphere": 7300,
      "Ġ57": 7301,
      "Ġ58": 7302,
      "comes": 7303,
      "sche": 7304,
      "ĠArch": 7305,
      "ĠTHREE": 7306,
      "correspond": 7307,
      "Ġinterpretation": 7308,
      "snip": 7309,
      "Ġcriterion": 7310,
      "Listing": 7311,
      "Making": 7312,
      "mapping": 7313,
      "yy": 7314,
      "ĠAm": 7315,
      "constrain": 7316,
      "Ġaccompl": 7317,
      "Ġ92": 7318,
      "setof": 7319,
      "iddens": 7320,
      "Ġlowest": 7321,
      "Ġparad": 7322,
      "Ġputting": 7323,
      "Ġestimator": 7324,
      "Ġcaches": 7325,
      "Ġcoordinates": 7326,
      "PACI": 7327,
      "SSEAU": 7328,
      "Tx": 7329,
      "miss": 7330,
      "Ġsyn": 7331,
      "ĠSuper": 7332,
      "ĠPSP": 7333,
      "Ġpred": 7334,
      "ĠProject": 7335,
      "Ġ2011": 7336,
      "Ġbackpropagation": 7337,
      "Ġrecently": 7338,
      "ĠUsed": 7339,
      "Ġshowing": 7340,
      "Ġpredictive": 7341,
      "Ġconverted": 7342,
      "Ġinvolve": 7343,
      "Ġhypervisor": 7344,
      "Ġsklearn": 7345,
      "DUSSEAU": 7346,
      "Ġbullets": 7347,
      "Ġdistinct": 7348,
      "ĠPSPBook": 7349,
      "hr": 7350,
      "had": 7351,
      "ingand": 7352,
      "Ġfraction": 7353,
      "arat": 7354,
      "Ġnested": 7355,
      "theory": 7356,
      "ĠFind": 7357,
      "esture": 7358,
      "Ġ62": 7359,
      "plicate": 7360,
      "Ġ72": 7361,
      "Ġworker": 7362,
      "Ġapps": 7363,
      "Ġsendmail": 7364,
      "addresses": 7365,
      "Ġmeasurement": 7366,
      "]=": 7367,
      "Ġthreshold": 7368,
      "lyph": 7369,
      "Ġ./": 7370,
      "quare": 7371,
      "ectors": 7372,
      "ĠMS": 7373,
      "Ġvaries": 7374,
      "positive": 7375,
      "Ġmultiplication": 7376,
      "Ġloading": 7377,
      "Ġolder": 7378,
      "Ġdiscover": 7379,
      "Ġeigenvalues": 7380,
      "ryptograph": 7381,
      "Sec": 7382,
      "inan": 7383,
      "Ġhh": 7384,
      "001": 7385,
      "ĠEqu": 7386,
      "Ġcompiled": 7387,
      "eval": 7388,
      "instructions": 7389,
      "ounters": 7390,
      "Ġreduction": 7391,
      "allows": 7392,
      "ĠManager": 7393,
      "Transform": 7394,
      "Ġsides": 7395,
      "Ġpol": 7396,
      "Ġfetch": 7397,
      "ids": 7398,
      "eck": 7399,
      "chastic": 7400,
      "ĠDisk": 7401,
      "ĠRNN": 7402,
      "Ġsuitable": 7403,
      "requires": 7404,
      "Ġensures": 7405,
      "Ġaliens": 7406,
      "Ġcircumstances": 7407,
      "2000": 7408,
      "radi": 7409,
      "impl": 7410,
      "ĠIll": 7411,
      "otal": 7412,
      "Ġstars": 7413,
      "ernoull": 7414,
      "Ġ98": 7415,
      "Ġcaller": 7416,
      "ibbs": 7417,
      "Ġnetworking": 7418,
      ")=(": 7419,
      "minim": 7420,
      "Ġeventually": 7421,
      "ocker": 7422,
      "Ġdecrease": 7423,
      "####": 7424,
      "Cambridge": 7425,
      "done": 7426,
      "pop": 7427,
      "Ġten": 7428,
      "Ġblog": 7429,
      "ĠAre": 7430,
      "Ġsucceed": 7431,
      "Ġ87": 7432,
      "Ġemphas": 7433,
      "ercial": 7434,
      "eedback": 7435,
      "aussians": 7436,
      "option": 7437,
      "works": 7438,
      "Em": 7439,
      "Ġdistinguish": 7440,
      "Ġbinding": 7441,
      "Ġnaming": 7442,
      "Ġlack": 7443,
      "ĠGPU": 7444,
      "Ġscatter": 7445,
      "ĠProc": 7446,
      "Ġdecor": 7447,
      "Ġelectromagnetic": 7448,
      "Ġstructured": 7449,
      "Example": 7450,
      "ĠDevelop": 7451,
      "Ġindependently": 7452,
      "Ġdidn": 7453,
      "Ġswitching": 7454,
      "Ġfairly": 7455,
      ":)": 7456,
      "hiddens": 7457,
      "Ġaware": 7458,
      "idx": 7459,
      "vey": 7460,
      "ĠSM": 7461,
      "Ġexercises": 7462,
      "Ġasync": 7463,
      "Ġsuff": 7464,
      "ypoint": 7465,
      "Ġ86": 7466,
      "Ġ88": 7467,
      "Ġmanually": 7468,
      "Ġequilibrium": 7469,
      "Ġbugs": 7470,
      "2003": 7471,
      "Ġexperiments": 7472,
      "213": 7473,
      "aits": 7474,
      "bot": 7475,
      "dim": 7476,
      "policy": 7477,
      "pdf": 7478,
      "tn": 7479,
      "Ġesc": 7480,
      "Ġcir": 7481,
      "ĠIC": 7482,
      "ĠEnt": 7483,
      "auss": 7484,
      "Ġ81": 7485,
      "encoders": 7486,
      "Ġ150": 7487,
      "Ġmeasurements": 7488,
      "ĠReading": 7489,
      "Ġsubclasses": 7490,
      "additional": 7491,
      "Bayesian": 7492,
      "LD": 7493,
      "cp": 7494,
      "hast": 7495,
      "Ġher": 7496,
      "Ġbio": 7497,
      "stant": 7498,
      "Ġreferenced": 7499,
      "vec": 7500,
      "ĠCurrent": 7501,
      "ĠMODE": 7502,
      "ĠHessian": 7503,
      "Ġtrace": 7504,
      "writes": 7505,
      "Ġchoices": 7506,
      "Ent": 7507,
      "RAID": 7508,
      "][": 7509,
      "rase": 7510,
      "Ġcd": 7511,
      "Ġcandid": 7512,
      "Ġdump": 7513,
      "Ġbind": 7514,
      "img": 7515,
      "Ġstoring": 7516,
      "ofs": 7517,
      "Ġ01": 7518,
      "ĠEASY": 7519,
      "anted": 7520,
      "Ġ},": 7521,
      "Ġterminates": 7522,
      "sets": 7523,
      "Ġdesigners": 7524,
      "ARPACI": 7525,
      "2006": 7526,
      "attrib": 7527,
      "ĠInterface": 7528,
      "BF": 7529,
      "OU": 7530,
      "card": 7531,
      "tle": 7532,
      "ued": 7533,
      "Ġult": 7534,
      "ĠPack": 7535,
      "tokens": 7536,
      "Ġshrink": 7537,
      "anged": 7538,
      "Ġtrade": 7539,
      "Ġcompet": 7540,
      "Ġopened": 7541,
      "Ġchoosing": 7542,
      "2001": 7543,
      "addressspace": 7544,
      "coord": 7545,
      "Ġmotiv": 7546,
      "boxes": 7547,
      "Ġdomains": 7548,
      "educe": 7549,
      "timer": 7550,
      "Ġneutron": 7551,
      "UniversityPress": 7552,
      ".*": 7553,
      "Ab": 7554,
      "XT": 7555,
      "counter": 7556,
      "Ġlens": 7557,
      "Ġforget": 7558,
      "Ġprojection": 7559,
      "Ġprototype": 7560,
      "ypical": 7561,
      "Ġ<!": 7562,
      "........................": 7563,
      "2018": 7564,
      "Ġaccesses": 7565,
      "Ġsuccessfully": 7566,
      "ĠRemark": 7567,
      "Ġroughly": 7568,
      "FOR": 7569,
      "Ġms": 7570,
      "ether": 7571,
      "Ġ120": 7572,
      "ithread": 7573,
      "ĠBro": 7574,
      "Ġ69": 7575,
      "Ġtransaction": 7576,
      "PCA": 7577,
      "author": 7578,
      "Ġpurch": 7579,
      "ĠAssum": 7580,
      "Key": 7581,
      "cases": 7582,
      "Ġaver": 7583,
      "abases": 7584,
      "Ġdeveloper": 7585,
      "Ġsegments": 7586,
      "why": 7587,
      "Ġintended": 7588,
      "parallel": 7589,
      "Ġcoil": 7590,
      "Ġcoefficient": 7591,
      "00000000": 7592,
      "Ġreturning": 7593,
      "ECES": 7594,
      "ĠACM": 7595,
      "derivative": 7596,
      "ĠBasic": 7597,
      "Markov": 7598,
      "Mode": 7599,
      "One": 7600,
      "fre": 7601,
      "ha": 7602,
      "lap": 7603,
      "pattern": 7604,
      "tp": 7605,
      "wit": 7606,
      "Ġsion": 7607,
      "Ġhtml": 7608,
      "Ġrails": 7609,
      "ĠVersion": 7610,
      "interface": 7611,
      "ĠStructure": 7612,
      "ishop": 7613,
      "Ġ2003": 7614,
      "Ġviewed": 7615,
      "focus": 7616,
      "Ġextensions": 7617,
      "Ġrecursive": 7618,
      "Ġdispatch": 7619,
      "ĠPIECES": 7620,
      "Ġparentheses": 7621,
      "(-": 7622,
      "CS": 7623,
      "Work": 7624,
      "ei": 7625,
      "pite": 7626,
      "wr": 7627,
      "terator": 7628,
      "Ġ73": 7629,
      "Ġprinciples": 7630,
      "Ġbackward": 7631,
      "ĠUnlike": 7632,
      "ACH": 7633,
      "URN": 7634,
      "ĠHandling": 7635,
      "ĠLEARN": 7636,
      "iverse": 7637,
      "np": 7638,
      "ucl": 7639,
      "Ġmerely": 7640,
      "stim": 7641,
      "oter": 7642,
      "ĠCOM": 7643,
      "clusion": 7644,
      "Ġstrategies": 7645,
      "ercase": 7646,
      "Ġ180": 7647,
      "ĠApplications": 7648,
      "Ġputs": 7649,
      "equation": 7650,
      "Ġsoftmax": 7651,
      "Ġsuspend": 7652,
      "YPE": 7653,
      "java": 7654,
      "Ġwast": 7655,
      "Ġrely": 7656,
      "ĠIPC": 7657,
      "Ġconcrete": 7658,
      "ofm": 7659,
      "ĠPos": 7660,
      "Ġory": 7661,
      "response": 7662,
      "ĠAdvanced": 7663,
      "Ġmarkup": 7664,
      "Ġfloating": 7665,
      "================": 7666,
      "aturally": 7667,
      "hibit": 7668,
      "amiltonian": 7669,
      "Ġdiscrimin": 7670,
      "fe": 7671,
      "norm": 7672,
      "heet": 7673,
      "inorder": 7674,
      "Ġwindows": 7675,
      "ĠTO": 7676,
      "lob": 7677,
      "ĠSPAC": 7678,
      "Ġcomposition": 7679,
      "anger": 7680,
      "Ġ83": 7681,
      "bris": 7682,
      "Ġexpectation": 7683,
      "contains": 7684,
      "practice": 7685,
      "improve": 7686,
      "Auction": 7687,
      "Senseof": 7688,
      "bus": 7689,
      "flo": 7690,
      "Ġenergies": 7691,
      "enot": 7692,
      "Ġinfo": 7693,
      "thist": 7694,
      "arguments": 7695,
      "Ġreaders": 7696,
      "Ġmechanical": 7697,
      "Ġturned": 7698,
      "descent": 7699,
      "Ġbusy": 7700,
      "ĠDecember": 7701,
      "Ġchem": 7702,
      "Ġguarantee": 7703,
      "SenseofData": 7704,
      ">,": 7705,
      "Factory": 7706,
      "IO": 7707,
      "onts": 7708,
      "Ġcaching": 7709,
      "ersand": 7710,
      "ĠEN": 7711,
      "ĠGNU": 7712,
      "Ġ66": 7713,
      "weobtain": 7714,
      "Ġsubmit": 7715,
      "Ġ2015": 7716,
      "Ġflach": 7717,
      "mlbook": 7718,
      "Ġmetadata": 7719,
      "ĠRemember": 7720,
      "Ġphoton": 7721,
      "ophisticated": 7722,
      "MakingSenseofData": 7723,
      "aive": 7724,
      "fig": 7725,
      "fers": 7726,
      "giv": 7727,
      "iability": 7728,
      "mechanism": 7729,
      "Ġlic": 7730,
      "Ġtrap": 7731,
      "score": 7732,
      "datapoint": 7733,
      "ĠContinu": 7734,
      "Ġintroduction": 7735,
      "according": 7736,
      "Ġdealing": 7737,
      "ĠFilesystem": 7738,
      "Socket": 7739,
      "ox": 7740,
      "inner": 7741,
      "Ġaud": 7742,
      "ingular": 7743,
      "Ġdam": 7744,
      "Ġvan": 7745,
      "ĠSign": 7746,
      "ĠMc": 7747,
      "fered": 7748,
      "Ġ})": 7749,
      "Ġenh": 7750,
      "Ġtyping": 7751,
      "Ġ96": 7752,
      "observ": 7753,
      "uchas": 7754,
      "Ġdecisions": 7755,
      "Ġrestri": 7756,
      "Ġ............................................": 7757,
      "remember": 7758,
      "construction": 7759,
      "Ġperfectly": 7760,
      "ĠPatterns": 7761,
      "enn": 7762,
      "itative": 7763,
      "Ġpd": 7764,
      "Ġfailed": 7765,
      "ushed": 7766,
      "Ġalias": 7767,
      "ĠOF": 7768,
      "concept": 7769,
      "2013": 7770,
      "Ġterminate": 7771,
      "ĠIntel": 7772,
      "Ġnuclear": 7773,
      "Ġtraffic": 7774,
      "Therefore": 7775,
      "Ġrestricted": 7776,
      "Label": 7777,
      "No": 7778,
      "nable": 7779,
      "oo": 7780,
      "pol": 7781,
      "Ġface": 7782,
      "Ġ110": 7783,
      "une": 7784,
      "Ġpropag": 7785,
      "ĠSets": 7786,
      "ĠNever": 7787,
      "ĠThisis": 7788,
      "trast": 7789,
      "127": 7790,
      "Ġpretty": 7791,
      "Inthis": 7792,
      "Ġseparation": 7793,
      "Ġarchive": 7794,
      "special": 7795,
      "([[": 7796,
      "ĠJSON": 7797,
      "Vol": 7798,
      "cod": 7799,
      "Ġlaunch": 7800,
      "rial": 7801,
      "tool": 7802,
      "Ġleaves": 7803,
      "157": 7804,
      "ubs": 7805,
      "ynman": 7806,
      "ĠStep": 7807,
      "swift": 7808,
      "algorithms": 7809,
      "Ġbuttons": 7810,
      "Ġinterpreted": 7811,
      "accuracy": 7812,
      "ĠSPACE": 7813,
      "FN": 7814,
      "MENT": 7815,
      "difference": 7816,
      "give": 7817,
      "outh": 7818,
      "usual": 7819,
      "Ġstage": 7820,
      "proces": 7821,
      "ĠLapl": 7822,
      "Ġnotion": 7823,
      "within": 7824,
      "Ġrequirement": 7825,
      "ecomposition": 7826,
      "Ġcapability": 7827,
      "Ġautomatic": 7828,
      "Ġconvergence": 7829,
      "consistent": 7830,
      "ĠTransform": 7831,
      "IZE": 7832,
      "ymmetric": 7833,
      "ĠAnalysis": 7834,
      "ĠNETWORKS": 7835,
      "Tr": 7836,
      "Ġdemand": 7837,
      "across": 7838,
      "Ġlies": 7839,
      "ĠSun": 7840,
      "apes": 7841,
      "ĠWorld": 7842,
      "thernet": 7843,
      "Ġquadratic": 7844,
      "Ġheur": 7845,
      "Ġcorre": 7846,
      "Ġoptimize": 7847,
      "Ġhyperparameters": 7848,
      "methods": 7849,
      "Ġsensitive": 7850,
      "Ġschedule": 7851,
      "110": 7852,
      "Ġpolicies": 7853,
      "stored": 7854,
      "ewise": 7855,
      "ension": 7856,
      "2017": 7857,
      "Ġexpos": 7858,
      "ĠJournal": 7859,
      "ĠProceedings": 7860,
      "ĠComple": 7861,
      "Ġmanaging": 7862,
      "Ġfilters": 7863,
      "ï¿½,ï¿½": 7864,
      "Ġoccup": 7865,
      "Ġassuming": 7866,
      "Ġcrash": 7867,
      "ĠService": 7868,
      "Ġeigenvectors": 7869,
      "Ġarticle": 7870,
      "ĠHinton": 7871,
      "Ġquotation": 7872,
      "hematicsfor": 7873,
      "Out": 7874,
      "uble": 7875,
      "itz": 7876,
      "Ġded": 7877,
      "Ġ(!": 7878,
      "Ġforth": 7879,
      "Ġweek": 7880,
      "ĠNS": 7881,
      "formal": 7882,
      "ĠUID": 7883,
      "Ġversus": 7884,
      "Ġapproximately": 7885,
      "Ġcounts": 7886,
      "ĠResult": 7887,
      "ASK": 7888,
      "Ġaccepts": 7889,
      "Ġradio": 7890,
      "Ġmanifold": 7891,
      "Ġsimultaneously": 7892,
      "Ġrapidly": 7893,
      "He": 7894,
      "his": 7895,
      "olve": 7896,
      "ĠDMA": 7897,
      "Ġcompany": 7898,
      "ĠStack": 7899,
      "contrib": 7900,
      "added": 7901,
      "subscrib": 7902,
      "URAL": 7903,
      "Ġdiscovered": 7904,
      "ĠIllustr": 7905,
      "ARE": 7906,
      "cross": 7907,
      "dest": 7908,
      "figure": 7909,
      "oy": 7910,
      "inChapter": 7911,
      "andso": 7912,
      "cker": 7913,
      "Ġlem": 7914,
      "Ġqual": 7915,
      "ssh": 7916,
      "whose": 7917,
      "255": 7918,
      "Ġslab": 7919,
      "ĠPerformance": 7920,
      "Server": 7921,
      "Ġarrive": 7922,
      "ĠInvokes": 7923,
      "samples": 7924,
      "Ġreach": 7925,
      "ĠSearch": 7926,
      "urface": 7927,
      "estig": 7928,
      "ĠDriver": 7929,
      "actoring": 7930,
      "ofthese": 7931,
      "Ġseek": 7932,
      "Ġequally": 7933,
      "ifythe": 7934,
      "parse": 7935,
      "afety": 7936,
      "Comm": 7937,
      "ĠProcessing": 7938,
      "exactly": 7939,
      "aratus": 7940,
      "Over": 7941,
      "dist": 7942,
      "rat": 7943,
      "rent": 7944,
      "storage": 7945,
      "ĠCond": 7946,
      "chain": 7947,
      "ĠDate": 7948,
      "Ġjava": 7949,
      "ĠProv": 7950,
      "ĠĠĠĠ": 7951,
      "Ġidentified": 7952,
      "Ġformats": 7953,
      "Ġsquares": 7954,
      "posterior": 7955,
      "ĠngAuction": 7956,
      "descriptor": 7957,
      "PN": 7958,
      "Ġcategory": 7959,
      "embed": 7960,
      "ableto": 7961,
      "Ġ79": 7962,
      "tainer": 7963,
      "ĠExpress": 7964,
      "ĠInterrupt": 7965,
      "Ġpenalty": 7966,
      "Ġsearches": 7967,
      "erv": 7968,
      "orter": 7969,
      "anh": 7970,
      "ĠTry": 7971,
      "Ġreuse": 7972,
      "Ġ111": 7973,
      "izers": 7974,
      "Ġ91": 7975,
      "Ġphiloso": 7976,
      "Ġ2001": 7977,
      "Ġconsisting": 7978,
      "Ġselecting": 7979,
      "header": 7980,
      "probabilities": 7981,
      "Ġcopying": 7982,
      "Ġexplore": 7983,
      "behavior": 7984,
      "jacent": 7985,
      "range": 7986,
      "Ġtional": 7987,
      "alist": 7988,
      "arrow": 7989,
      "umb": 7990,
      "Ġspatial": 7991,
      "Ġ78": 7992,
      "Ġ89": 7993,
      "pringer": 7994,
      "estimate": 7995,
      "wherethe": 7996,
      "detail": 7997,
      "maybe": 7998,
      "ĠDefault": 7999,
      "Ġrecognize": 8000,
      "Inte": 8001,
      "Ġgravitational": 8002,
      "(,": 8003,
      "Function": 8004,
      "dll": 8005,
      "Ġmys": 8006,
      "applied": 8007,
      "Ġalone": 8008,
      "illion": 8009,
      "ckets": 8010,
      "ibatch": 8011,
      "Ġmostly": 8012,
      "ï¿½ï¿½ï¿½": 8013,
      "ĠApple": 8014,
      "Ġparse": 8015,
      "computers": 8016,
      "compat": 8017,
      "Ġintegrity": 8018,
      "ĠAssume": 8019,
      "ĠWriting": 8020,
      "POST": 8021,
      "messages": 8022,
      "take": 8023,
      "Ġaim": 8024,
      "ingto": 8025,
      "estamp": 8026,
      "002": 8027,
      "ĠBengio": 8028,
      "Ġ101": 8029,
      "addr": 8030,
      "Ġprints": 8031,
      "Ġcoin": 8032,
      "generic": 8033,
      "consist": 8034,
      "Ġremoves": 8035,
      "Ġremoving": 8036,
      "ĠDoes": 8037,
      "returns": 8038,
      "management": 8039,
      "]:": 8040,
      "cut": 8041,
      "higher": 8042,
      "Ġpag": 8043,
      "Ġincorpor": 8044,
      "Ġei": 8045,
      "ĠTim": 8046,
      "andS": 8047,
      "ĠSimple": 8048,
      "ofeach": 8049,
      "Ġyes": 8050,
      "ensure": 8051,
      "Ġindirect": 8052,
      "Ġencrypt": 8053,
      "ĠInternational": 8054,
      "products": 8055,
      "square": 8056,
      "Load": 8057,
      "oned": 8058,
      "allof": 8059,
      "ĠTod": 8060,
      "ĠAW": 8061,
      "ĠSto": 8062,
      "depth": 8063,
      "ĠStorage": 8064,
      "Ġ2004": 8065,
      "iquid": 8066,
      "ĠRegular": 8067,
      "ITE": 8068,
      "center": 8069,
      "poch": 8070,
      "status": 8071,
      "fessional": 8072,
      "Networks": 8073,
      "family": 8074,
      "iblio": 8075,
      "(:": 8076,
      "CC": 8077,
      "NIST": 8078,
      "OUT": 8079,
      "bias": 8080,
      "kT": 8081,
      "ĠDes": 8082,
      "ĠNt": 8083,
      "actually": 8084,
      "Ġip": 8085,
      "Ġ\"$": 8086,
      "Ġbuffers": 8087,
      "Ġdivergence": 8088,
      "LECT": 8089,
      "Ġrespond": 8090,
      "Ġoriginally": 8091,
      "rwx": 8092,
      "Ġhyphen": 8093,
      "*/": 8094,
      "CD": 8095,
      "SYSTEM": 8096,
      "eynman": 8097,
      "sort": 8098,
      "asy": 8099,
      "amer": 8100,
      "resource": 8101,
      "ĠRather": 8102,
      "Ġ82": 8103,
      "dio": 8104,
      "Ġ140": 8105,
      "Ġagent": 8106,
      "Ġflux": 8107,
      "youcan": 8108,
      "2008": 8109,
      "basedon": 8110,
      "hasbeen": 8111,
      "simply": 8112,
      "Ġflexibility": 8113,
      "ratherthan": 8114,
      "ĠSerialDate": 8115,
      "thekernel": 8116,
      "reset": 8117,
      "Ġ05": 8118,
      "article": 8119,
      "Ġspan": 8120,
      "dee": 8121,
      "reads": 8122,
      "cale": 8123,
      "Ġcertainly": 8124,
      "Ġindicating": 8125,
      "Ġfoo": 8126,
      "Ġsorted": 8127,
      "Ġguaranteed": 8128,
      "Ġpossibility": 8129,
      "Event": 8130,
      "cf": 8131,
      "lists": 8132,
      "ns": 8133,
      "Ġca": 8134,
      "ĠGibbs": 8135,
      "2012": 8136,
      "short": 8137,
      "ĠXML": 8138,
      "ACT": 8139,
      "resulting": 8140,
      "representation": 8141,
      "Ġdrawing": 8142,
      "Ġmagic": 8143,
      "Ġeye": 8144,
      "cas": 8145,
      "ky": 8146,
      "ners": 8147,
      "Ġtang": 8148,
      "ster": 8149,
      "ulates": 8150,
      "termin": 8151,
      "ĠCustom": 8152,
      "api": 8153,
      "ĠWes": 8154,
      "ĠLi": 8155,
      "deep": 8156,
      "Ġ71": 8157,
      "ells": 8158,
      "Ġoperate": 8159,
      "Ġ2017": 8160,
      "setting": 8161,
      "ONE": 8162,
      "thenew": 8163,
      "2005": 8164,
      "attery": 8165,
      "attered": 8166,
      "hematical": 8167,
      "Ġbelieve": 8168,
      "tofind": 8169,
      "ĠClearly": 8170,
      "ĠLEARNING": 8171,
      "Hub": 8172,
      "SY": 8173,
      "Te": 8174,
      "fine": 8175,
      "global": 8176,
      "hall": 8177,
      "join": 8178,
      "sent": 8179,
      "inomial": 8180,
      "isused": 8181,
      "rote": 8182,
      "their": 8183,
      "Ġhot": 8184,
      "ags": 8185,
      "ĠAB": 8186,
      "Ġprofile": 8187,
      "seethe": 8188,
      "ĠPages": 8189,
      "ĠBr": 8190,
      "Ġtruth": 8191,
      "Ġresolution": 8192,
      "Ġmodification": 8193,
      "Ġjoin": 8194,
      "Ġ74": 8195,
      "Ġ)+": 8196,
      "Ġedition": 8197,
      "Ġcores": 8198,
      "Ġencaps": 8199,
      "IME": 8200,
      "black": 8201,
      "Ġbelongs": 8202,
      "ĠUITable": 8203,
      "Marshal": 8204,
      "rs": 8205,
      "typically": 8206,
      "Ġwalk": 8207,
      "role": 8208,
      "entries": 8209,
      "Ġnd": 8210,
      "ĠRET": 8211,
      "Ġsubscrib": 8212,
      "Ġflat": 8213,
      "switch": 8214,
      "Ġnamespace": 8215,
      "Ġutil": 8216,
      "asetof": 8217,
      "ĠURLs": 8218,
      "Ġregardless": 8219,
      "Ġbriefly": 8220,
      "Ġ($": 8221,
      "ĠSim": 8222,
      "riz": 8223,
      "segment": 8224,
      "ĠPerson": 8225,
      "ĠHaving": 8226,
      "Ġreson": 8227,
      "utions": 8228,
      "ĠFormat": 8229,
      "ĠKey": 8230,
      "Ġattached": 8231,
      "operator": 8232,
      "aprogram": 8233,
      "Ġlatest": 8234,
      "Ġsatisfies": 8235,
      "ĠModern": 8236,
      "ĠMaxwell": 8237,
      "ibliograph": 8238,
      "Marshaler": 8239,
      "First": 8240,
      "Group": 8241,
      "donot": 8242,
      "rum": 8243,
      "ĠTypically": 8244,
      "among": 8245,
      "terms": 8246,
      "ateach": 8247,
      "Ġattract": 8248,
      "Ġimm": 8249,
      "cond": 8250,
      "ordered": 8251,
      "Ġvariations": 8252,
      "Ġintermediate": 8253,
      "shave": 8254,
      "Ġoverfitting": 8255,
      "Ġcloser": 8256,
      "Ġcircular": 8257,
      "Ġsnapshot": 8258,
      "Ġnucleus": 8259,
      "Ġmirror": 8260,
      "Regression": 8261,
      "Week": 8262,
      "Ġincorrect": 8263,
      "asan": 8264,
      "acl": 8265,
      "unately": 8266,
      "Ġgl": 8267,
      "ĠNet": 8268,
      "Ġlect": 8269,
      "....................": 8270,
      "Ġscience": 8271,
      "ipping": 8272,
      "Ġdisplaying": 8273,
      "Ġdecreases": 8274,
      "described": 8275,
      "Ġscenario": 8276,
      "LINE": 8277,
      "guments": 8278,
      "yield": 8279,
      "Ġ(/": 8280,
      "ustry": 8281,
      "Ġneither": 8282,
      "phy": 8283,
      "Ġencoder": 8284,
      "Ġindicated": 8285,
      "mustbe": 8286,
      "Ġminimizing": 8287,
      "theyare": 8288,
      "ĠBuild": 8289,
      "Ġignored": 8290,
      "DUCTION": 8291,
      "ĠImagine": 8292,
      "EB": 8293,
      "circ": 8294,
      "iated": 8295,
      "labeled": 8296,
      "making": 8297,
      "year": 8298,
      "Ġdirty": 8299,
      "etrans": 8300,
      "unity": 8301,
      "ĠAM": 8302,
      "owers": 8303,
      "ĠHel": 8304,
      "Ġ}}": 8305,
      "Ġformer": 8306,
      "ĠProtocol": 8307,
      "Ġremark": 8308,
      "Ġargs": 8309,
      "Ġharder": 8310,
      "estimation": 8311,
      "Ġordering": 8312,
      "Ġencoding": 8313,
      "Ġrandomly": 8314,
      "ĠCommon": 8315,
      "Ġmaintains": 8316,
      "Ġslowly": 8317,
      "Ġpolarization": 8318,
      "Ġswitches": 8319,
      "split": 8320,
      "satisf": 8321,
      "uzz": 8322,
      "stood": 8323,
      "ĠSID": 8324,
      "ĠBSD": 8325,
      "Ġdetector": 8326,
      "Ġ192": 8327,
      "................................................................": 8328,
      "Ġmultiprocessor": 8329,
      "Ġsender": 8330,
      "ĠDiscuss": 8331,
      "Ġattacks": 8332,
      "fast": 8333,
      "tmp": 8334,
      "username": 8335,
      "Ġgate": 8336,
      "rior": 8337,
      "ĠWord": 8338,
      "Ġring": 8339,
      "ĠDet": 8340,
      "Ġclassifiers": 8341,
      "traction": 8342,
      "Ġ+(": 8343,
      "ublic": 8344,
      "Ġdistances": 8345,
      "relevant": 8346,
      "ĠProbability": 8347,
      "Ġmeasures": 8348,
      "Ġmedium": 8349,
      "CambridgeUniversityPress": 8350,
      "'re": 8351,
      "Link": 8352,
      "framework": 8353,
      "pers": 8354,
      "wall": 8355,
      "arb": 8356,
      "rive": 8357,
      "Ġconcurrent": 8358,
      "ĠPower": 8359,
      "ĠBourne": 8360,
      "Ġnewly": 8361,
      "ĠChange": 8362,
      "Ġhandlers": 8363,
      "Ġopens": 8364,
      "pecific": 8365,
      "compute": 8366,
      "implementation": 8367,
      "occur": 8368,
      "ĠImplementing": 8369,
      "neuralnetwork": 8370,
      "interesting": 8371,
      "ĠEnglish": 8372,
      "momentum": 8373,
      "RC": 8374,
      "ahead": 8375,
      "hu": 8376,
      "pix": 8377,
      "similar": 8378,
      "||": 8379,
      "Ġinequality": 8380,
      "Ġexceed": 8381,
      "ĠPut": 8382,
      "Ġ84": 8383,
      "Ġ105": 8384,
      "share": 8385,
      "Ġlogs": 8386,
      "eft": 8387,
      "Ġselectors": 8388,
      "Ġsimilarly": 8389,
      "Ġbalanc": 8390,
      "ĠMaximum": 8391,
      "Ġdemonstrate": 8392,
      "channels": 8393,
      "Ġcylinder": 8394,
      "uclide": 8395,
      ",,": 8396,
      "113": 8397,
      "Fa": 8398,
      "Gu": 8399,
      "TO": 8400,
      "eff": 8401,
      "Ġcast": 8402,
      "Ġbandwidth": 8403,
      "Ġinfrastructure": 8404,
      "stdio": 8405,
      "eless": 8406,
      "agiven": 8407,
      "ecycle": 8408,
      "rivers": 8409,
      "ĠLO": 8410,
      "ĠLaw": 8411,
      "Ġund": 8412,
      "Ġprinted": 8413,
      "imitives": 8414,
      "Ġmanaged": 8415,
      "Ġquantities": 8416,
      "Ġhierarchical": 8417,
      "ĠTypeScript": 8418,
      "Ġengineering": 8419,
      "Ġpossibly": 8420,
      "syne": 8421,
      "ufact": 8422,
      "atches": 8423,
      "ades": 8424,
      "ordistribution": 8425,
      "ĠGB": 8426,
      "Ġinterference": 8427,
      "ountered": 8428,
      "Ġ127": 8429,
      "Ġcompan": 8430,
      "Ġminus": 8431,
      "Ġprovider": 8432,
      "Ġgeneralize": 8433,
      "valueofthe": 8434,
      "ĠArrays": 8435,
      "ICS": 8436,
      "ĠContent": 8437,
      "uthentication": 8438,
      "Ġmaterials": 8439,
      "Ġfiltering": 8440,
      "Ġconventions": 8441,
      "Ġsymmetry": 8442,
      "fessor": 8443,
      "(ï¿½)": 8444,
      "+,": 8445,
      "HY": 8446,
      "Opt": 8447,
      "SIG": 8448,
      "dot": 8449,
      "wet": 8450,
      "atar": 8451,
      "atleast": 8452,
      "emore": 8453,
      "ulations": 8454,
      "Ġgem": 8455,
      "exponent": 8456,
      "ĠDifferent": 8457,
      "argets": 8458,
      "Ġlookup": 8459,
      "ĠAdmin": 8460,
      "ĠReal": 8461,
      "Ġfilenames": 8462,
      "Ġassumes": 8463,
      "labels": 8464,
      "ĠISBN": 8465,
      "Ġscheduled": 8466,
      "ĠIntegr": 8467,
      ".-": 8468,
      "115": 8469,
      "TA": 8470,
      "din": 8471,
      "qrt": 8472,
      "ana": 8473,
      "Ġreached": 8474,
      "ife": 8475,
      "Ġconjugate": 8476,
      "ĠMLE": 8477,
      "ĠDirect": 8478,
      "ĠRd": 8479,
      "ĠRest": 8480,
      "oney": 8481,
      "Ġserious": 8482,
      "iveness": 8483,
      "Ġproviders": 8484,
      "Ġconsidering": 8485,
      "Ġscaling": 8486,
      ")+(": 8487,
      "edinSection": 8488,
      "Ġauthors": 8489,
      "Ġcompatibility": 8490,
      "pus": 8491,
      "zone": 8492,
      "Ġture": 8493,
      "Ġcame": 8494,
      "ĠSmall": 8495,
      "Ġgawk": 8496,
      "Ġstable": 8497,
      "Ġstick": 8498,
      "riority": 8499,
      "qual": 8500,
      "chmark": 8501,
      "Ġexc": 8502,
      "ĠBig": 8503,
      "byCambridgeUniversityPress": 8504,
      "Ġ102": 8505,
      "posing": 8506,
      "Ġdeveloping": 8507,
      "Ġguide": 8508,
      "Ġspecifically": 8509,
      "directories": 8510,
      "Ġdenotes": 8511,
      "ĠPrint": 8512,
      "Ġsatisfied": 8513,
      "Ġbroken": 8514,
      "Ġdeclarations": 8515,
      "complexity": 8516,
      "cidentally": 8517,
      "Action": 8518,
      "caus": 8519,
      "gn": 8520,
      "person": 8521,
      "alo": 8522,
      "Ġ113": 8523,
      "Ġhope": 8524,
      "ĠSQL": 8525,
      "ptr": 8526,
      "actual": 8527,
      "ensitive": 8528,
      "atesthe": 8529,
      "Ġperceptron": 8530,
      "2019": 8531,
      "ĠCharacter": 8532,
      "Ġgoals": 8533,
      "Ġtransparent": 8534,
      "Ġassembly": 8535,
      "Ġlocally": 8536,
      "istration": 8537,
      "decision": 8538,
      "Ġaxiom": 8539,
      "Algorithm": 8540,
      "Ġfacility": 8541,
      "atomic": 8542,
      "Ġhello": 8543,
      "ĠFortunately": 8544,
      "NC": 8545,
      "Published": 8546,
      "ris": 8547,
      "Ġic": 8548,
      "uration": 8549,
      "ĠES": 8550,
      "achie": 8551,
      "ĠNg": 8552,
      "ĠOK": 8553,
      "arameters": 8554,
      "Ġplate": 8555,
      "Ġintuitive": 8556,
      "spect": 8557,
      "Ġapparent": 8558,
      "Ġcompound": 8559,
      "Store": 8560,
      "Ġcharacteristics": 8561,
      "Ġbounded": 8562,
      "Ġreceiver": 8563,
      "execute": 8564,
      "Ġ/**": 8565,
      "Ġinterpreter": 8566,
      "Ġsmart": 8567,
      "Respon": 8568,
      "ĠPROCESS": 8569,
      "IZATION": 8570,
      "Ġperspective": 8571,
      "Ġconsistency": 8572,
      "Ġvoltage": 8573,
      "FILE": 8574,
      "PS": 8575,
      "uition": 8576,
      "itting": 8577,
      "sthes": 8578,
      "andas": 8579,
      "ĠBit": 8580,
      "ĠDat": 8581,
      "ĠDynamic": 8582,
      "orders": 8583,
      "ipher": 8584,
      "never": 8585,
      "dinger": 8586,
      "Ġemitted": 8587,
      "Ġidentifies": 8588,
      "branch": 8589,
      "Ġintroduces": 8590,
      "ĠPhoto": 8591,
      "ĠSolutions": 8592,
      "NG": 8593,
      "Search": 8594,
      "ĠIBM": 8595,
      "ithub": 8596,
      "ĠFILE": 8597,
      "ĠEthernet": 8598,
      "dead": 8599,
      "epar": 8600,
      "Ġ{}": 8601,
      "ĠComponent": 8602,
      "ĠAppro": 8603,
      "ĠApply": 8604,
      "Ġpriorities": 8605,
      "__(": 8606,
      "____": 8607,
      "ecomput": 8608,
      "Ġloads": 8609,
      "appropriate": 8610,
      "Ġmarket": 8611,
      "Conference": 8612,
      "Ġthinking": 8613,
      "ĠOften": 8614,
      "volume": 8615,
      "Ġalignment": 8616,
      "Ġoccurred": 8617,
      "ĠScala": 8618,
      ">.": 8619,
      "JS": 8620,
      "za": 8621,
      "isy": 8622,
      "alth": 8623,
      "Ġfreed": 8624,
      "Ġball": 8625,
      "Ġinfer": 8626,
      "Ġincoming": 8627,
      "Ġreward": 8628,
      "Ġhuge": 8629,
      "ensities": 8630,
      "Ġinteractions": 8631,
      "Ġapparatus": 8632,
      "Ġcorner": 8633,
      "ultiple": 8634,
      "Ġwanted": 8635,
      "Ġ250": 8636,
      "Ġseparately": 8637,
      "2004": 8638,
      "provided": 8639,
      "caseof": 8640,
      "ĠScheduling": 8641,
      "ĠTesting": 8642,
      "Cal": 8643,
      "VAL": 8644,
      "aur": 8645,
      "ned": 8646,
      "pipe": 8647,
      "Ġsophisticated": 8648,
      "roth": 8649,
      "Ġanonymous": 8650,
      "omething": 8651,
      "ĠSte": 8652,
      "Ġgcc": 8653,
      "Ġbehave": 8654,
      "Ġconcent": 8655,
      "prot": 8656,
      "alues": 8657,
      "Ġplain": 8658,
      "ĠKL": 8659,
      "Ġequip": 8660,
      "ĠConsequently": 8661,
      "overthe": 8662,
      "Ġdesigning": 8663,
      "Ġconcurrency": 8664,
      "Appendix": 8665,
      "Ġtravers": 8666,
      "quantum": 8667,
      "Ġplatforms": 8668,
      "ĠVisual": 8669,
      "Ġcompressed": 8670,
      "Hint": 8671,
      "Kernel": 8672,
      "becomes": 8673,
      "pher": 8674,
      "sync": 8675,
      "isin": 8676,
      "Ġmation": 8677,
      "iche": 8678,
      "adem": 8679,
      "ĠCss": 8680,
      "Ġalt": 8681,
      "Ġrace": 8682,
      "Ġanywhere": 8683,
      "Ġmatched": 8684,
      "spin": 8685,
      "Ġcorrupt": 8686,
      "Ġcompletes": 8687,
      "Ġavail": 8688,
      "equations": 8689,
      "Ġacquire": 8690,
      "Ġconclude": 8691,
      "critical": 8692,
      "ernoulli": 8693,
      "ĠRETURN": 8694,
      "TU": 8695,
      "further": 8696,
      "risk": 8697,
      "vances": 8698,
      "Ġware": 8699,
      "Ġ(-": 8700,
      "Ġalert": 8701,
      "ĠMay": 8702,
      "ĠRequest": 8703,
      "Ġresponses": 8704,
      "Ġestimates": 8705,
      "ancem": 8706,
      "Recogn": 8707,
      "Open": 8708,
      "Ptr": 8709,
      "Ġ|(": 8710,
      "Ġminor": 8711,
      "options": 8712,
      "attice": 8713,
      "Ġimproved": 8714,
      "ECUR": 8715,
      "grees": 8716,
      "driven": 8717,
      "ĠSwift": 8718,
      "ĠEditor": 8719,
      "ĠGetting": 8720,
      "Ġmillion": 8721,
      "isenroth": 8722,
      "ĠIdent": 8723,
      "Go": 8724,
      "Rails": 8725,
      "hang": 8726,
      "inform": 8727,
      "Ġrewrite": 8728,
      "Ġthatthe": 8729,
      "Ġexcellent": 8730,
      "Ġ=ï¿½": 8731,
      "forall": 8732,
      "Ġnoted": 8733,
      "Ġsystemd": 8734,
      "track": 8735,
      "Ġbackup": 8736,
      "Ġinvocation": 8737,
      "Char": 8738,
      "ARY": 8739,
      "2007": 8740,
      "brid": 8741,
      "Ġhyperparameter": 8742,
      "Ġ;;": 8743,
      "ĠObjects": 8744,
      "ĠOptimization": 8745,
      "Ġcriteria": 8746,
      ")}": 8747,
      ".]": 8748,
      "RF": 8749,
      "fc": 8750,
      "got": 8751,
      "onormal": 8752,
      "ening": 8753,
      "ĠTem": 8754,
      "Ġreclaim": 8755,
      "Ġhim": 8756,
      "ĠAction": 8757,
      "ĠSample": 8758,
      "ĠWewill": 8759,
      "irable": 8760,
      "antum": 8761,
      "Ġouter": 8762,
      "Ġnews": 8763,
      "ĠExplain": 8764,
      "Ġenters": 8765,
      "sched": 8766,
      "Ġsmallest": 8767,
      "Ġgrep": 8768,
      "generally": 8769,
      "outputs": 8770,
      "monic": 8771,
      "Ġforeground": 8772,
      "recurs": 8773,
      "Ġrecommended": 8774,
      "Ġfavorite": 8775,
      "Note": 8776,
      "maps": 8777,
      "inthes": 8778,
      "ato": 8779,
      "ĠSeveral": 8780,
      "ĠFound": 8781,
      "ĠGood": 8782,
      "pendicular": 8783,
      "Ġ#@": 8784,
      "Ġentering": 8785,
      "Ġsigned": 8786,
      "Ġdisplacement": 8787,
      "Ġinitializes": 8788,
      "Ġguid": 8789,
      "ĠRespon": 8790,
      "servable": 8791,
      "TRODUCTION": 8792,
      "Ġdigit": 8793,
      "Ġretrieve": 8794,
      "private": 8795,
      "512": 8796,
      "ME": 8797,
      "XX": 8798,
      "simple": 8799,
      "Ġomit": 8800,
      "Ġwall": 8801,
      "igg": 8802,
      "Ġstay": 8803,
      "esting": 8804,
      "ĠDavid": 8805,
      "Ġunion": 8806,
      "Ġdisabled": 8807,
      "thisis": 8808,
      "generate": 8809,
      "Ġcalculation": 8810,
      "larger": 8811,
      "Ġspeech": 8812,
      "Ġhacker": 8813,
      "Ġtrouble": 8814,
      "Ġdedicated": 8815,
      "EY": 8816,
      "lim": 8817,
      "mak": 8818,
      "ashed": 8819,
      "Ġvice": 8820,
      "Ġvocab": 8821,
      "ĠCore": 8822,
      "ĠPlay": 8823,
      "ewhat": 8824,
      "ĠBased": 8825,
      "ights": 8826,
      "ikit": 8827,
      "Ġroll": 8828,
      "rowser": 8829,
      "Input": 8830,
      "Ġfluid": 8831,
      "sthatthe": 8832,
      "Ġsurround": 8833,
      "Ġanswers": 8834,
      "Ġdeleted": 8835,
      "Ġdeployment": 8836,
      "BERT": 8837,
      "Here": 8838,
      "hi": 8839,
      "rr": 8840,
      "vocab": 8841,
      "outer": 8842,
      "etr": 8843,
      "Ġreinforcement": 8844,
      "acob": 8845,
      "Ġholes": 8846,
      "advantages": 8847,
      "abit": 8848,
      "ĠBur": 8849,
      "ĠNormal": 8850,
      "Ġdocker": 8851,
      "Ġxi": 8852,
      "avari": 8853,
      "ĠGET": 8854,
      "erman": 8855,
      "Ġ109": 8856,
      "Ġmeet": 8857,
      "visual": 8858,
      "END": 8859,
      "Ġbounds": 8860,
      "ĠContents": 8861,
      "Ġintegrate": 8862,
      "passing": 8863,
      "Ġexecutive": 8864,
      "Ġbecame": 8865,
      "Ġcycles": 8866,
      "Ġtransformations": 8867,
      "Ġchannels": 8868,
      "ĠDirichlet": 8869,
      "withrespectto": 8870,
      "Ong": 8871,
      "Us": 8872,
      "iseconds": 8873,
      "oments": 8874,
      "acOS": 8875,
      "Ġcond": 8876,
      "exist": 8877,
      "ĠHamiltonian": 8878,
      "arded": 8879,
      "............................": 8880,
      "Ġ1999": 8881,
      "datasets": 8882,
      "Array": 8883,
      "sibilities": 8884,
      "ĠPerhaps": 8885,
      "ĠFlash": 8886,
      "assuming": 8887,
      "Ġsomewhere": 8888,
      "replacement": 8889,
      "Bar": 8890,
      "Java": 8891,
      "OUR": 8892,
      "Ġsed": 8893,
      "Ġcryptograph": 8894,
      "eness": 8895,
      "Ġbid": 8896,
      "Ġepoch": 8897,
      "ĠTe": 8898,
      "thre": 8899,
      "ĠEvalu": 8900,
      "108": 8901,
      "ipole": 8902,
      "Ġ93": 8903,
      "Ġdifferently": 8904,
      "Ġ123": 8905,
      "Ġdecimal": 8906,
      "Ġnonzero": 8907,
      "calls": 8908,
      "Ġcurv": 8909,
      "Ġsampled": 8910,
      "Ġrotate": 8911,
      "Deisenroth": 8912,
      "ĠStarting": 8913,
      "ĠImplementation": 8914,
      "Client": 8915,
      "manager": 8916,
      "Ġterminated": 8917,
      "Ġinserted": 8918,
      "built": 8919,
      "ĠAdditionally": 8920,
      "DK": 8921,
      "mor": 8922,
      "named": 8923,
      "Ġdoub": 8924,
      "Ġeight": 8925,
      "imately": 8926,
      "Ġhours": 8927,
      "Ġstory": 8928,
      "Ġï¿½)": 8929,
      "ĠBar": 8930,
      "Ġcommercial": 8931,
      "150": 8932,
      "posal": 8933,
      "layout": 8934,
      "ĠPract": 8935,
      "continuous": 8936,
      "App": 8937,
      "expressions": 8938,
      "params": 8939,
      "Ġphenomena": 8940,
      "Message": 8941,
      "aar": 8942,
      "rank": 8943,
      "Ġil": 8944,
      "really": 8945,
      "Ġcached": 8946,
      "Ġwild": 8947,
      "ecaus": 8948,
      "foran": 8949,
      "profile": 8950,
      "Ġprocessed": 8951,
      "Ġnearest": 8952,
      "Ġ<=": 8953,
      "Ġ103": 8954,
      "Ġ94": 8955,
      "ounder": 8956,
      "events": 8957,
      "howthe": 8958,
      "Ġowners": 8959,
      "Ġheaders": 8960,
      "Ġillustration": 8961,
      "neuralnetworks": 8962,
      "Fl": 8963,
      "distance": 8964,
      "ki": 8965,
      "lab": 8966,
      "rist": 8967,
      "edy": 8968,
      "Ġreject": 8969,
      "lose": 8970,
      "adifferent": 8971,
      "ĠFeynman": 8972,
      "ĠMo": 8973,
      "theright": 8974,
      "Ġapart": 8975,
      "acker": 8976,
      "delete": 8977,
      "connection": 8978,
      "Ġscroll": 8979,
      "Ġlowercase": 8980,
      "Ġ>=": 8981,
      "ACE": 8982,
      "Ġbitmap": 8983,
      "Ġ........................................": 8984,
      "executed": 8985,
      "Ġcharged": 8986,
      "produce": 8987,
      "Ġdivision": 8988,
      "Ġsuggests": 8989,
      "ĠMultiple": 8990,
      "Ġvirus": 8991,
      "Ġpanel": 8992,
      "intermsof": 8993,
      "Equation": 8994,
      "ILL": 8995,
      "RNN": 8996,
      "human": 8997,
      "nav": 8998,
      "Ġpubs": 8999,
      "Ġfashion": 9000,
      "thefunction": 9001,
      "Ġ115": 9002,
      "ulner": 9003,
      "ivered": 9004,
      "Ġformed": 9005,
      "Ġlocate": 9006,
      "nergy": 9007,
      "Ġsaying": 9008,
      "versely": 9009,
      "ĠSupport": 9010,
      "Ġevaluating": 9011,
      "ymbols": 9012,
      "Ġ~/.": 9013,
      "Ġimpact": 9014,
      "Ġfriction": 9015,
      "Ġchallenge": 9016,
      "amountof": 9017,
      "Faisal": 9018,
      "?ï¿½": 9019,
      "FT": 9020,
      "GE": 9021,
      "RI": 9022,
      "UID": 9023,
      "dings": 9024,
      "inFig": 9025,
      "Ġmappings": 9026,
      "Ġnil": 9027,
      "accept": 9028,
      "Ġhide": 9029,
      "ĠDocument": 9030,
      "ipes": 9031,
      "Ġcompact": 9032,
      "Ġtransitions": 9033,
      "Ġtems": 9034,
      "registers": 9035,
      "Ġlocking": 9036,
      "modules": 9037,
      "Ġfourth": 9038,
      "thanthe": 9039,
      "bitrarily": 9040,
      "Ġthousands": 9041,
      "Anal": 9042,
      "DO": 9043,
      "dimension": 9044,
      "iest": 9045,
      "rint": 9046,
      "Ġsector": 9047,
      "acity": 9048,
      "Ġland": 9049,
      "ecut": 9050,
      "Ġorbit": 9051,
      "Ġshif": 9052,
      "ĠiOS": 9053,
      "Ġnumpy": 9054,
      "posethat": 9055,
      "Ġequival": 9056,
      "ĠStructures": 9057,
      "Ġaggreg": 9058,
      "having": 9059,
      "keley": 9060,
      "disp": 9061,
      "Ġconfigurations": 9062,
      "Ġiterator": 9063,
      "Ġissued": 9064,
      "Ġrendering": 9065,
      "ĠBlack": 9066,
      "Recognizer": 9067,
      "DI": 9068,
      "zi": 9069,
      "report": 9070,
      "itig": 9071,
      "Ġmus": 9072,
      "ica": 9073,
      "ilit": 9074,
      "ĠIDE": 9075,
      "ola": 9076,
      "Ġshar": 9077,
      "ĠHttp": 9078,
      "Ġinstruct": 9079,
      "Ġgover": 9080,
      "Ġcomputations": 9081,
      "Ġerrno": 9082,
      "seek": 9083,
      "Ġselects": 9084,
      "volutional": 9085,
      "Ġtreated": 9086,
      "Ġslower": 9087,
      "Device": 9088,
      "ĠGitHub": 9089,
      "ĠAuto": 9090,
      "IVE": 9091,
      "LOCK": 9092,
      "Def": 9093,
      "Ob": 9094,
      "Window": 9095,
      "sis": 9096,
      "inference": 9097,
      "reference": 9098,
      "Ġtheoretical": 9099,
      "esides": 9100,
      "Ġwrote": 9101,
      "stor": 9102,
      "unks": 9103,
      "Ġshut": 9104,
      "ĠHash": 9105,
      "Ġresistance": 9106,
      "withan": 9107,
      "Change": 9108,
      "SET": 9109,
      "display": 9110,
      "Ġheads": 9111,
      "Ġreplacing": 9112,
      "Ġdifficulty": 9113,
      "Ġordered": 9114,
      "Ġexploit": 9115,
      "Ġreports": 9116,
      "legal": 9117,
      "frequency": 9118,
      "delay": 9119,
      "Ġparams": 9120,
      "ĠBuilding": 9121,
      "Ġrarely": 9122,
      "ĠNevertheless": 9123,
      "466": 9124,
      "AV": 9125,
      "CV": 9126,
      "GM": 9127,
      "LY": 9128,
      "Vari": 9129,
      "nov": 9130,
      "screen": 9131,
      "Ġtel": 9132,
      "athe": 9133,
      "olved": 9134,
      "seen": 9135,
      "Ġalpha": 9136,
      "mention": 9137,
      "Ġshadow": 9138,
      "ĠVector": 9139,
      "Ġ106": 9140,
      "rought": 9141,
      "illustrated": 9142,
      "objective": 9143,
      "Ġsimplify": 9144,
      "Ġcustomers": 9145,
      "Ġcosts": 9146,
      "ĠIDs": 9147,
      "ĠNUMA": 9148,
      "Ġsufficiently": 9149,
      "plotlib": 9150,
      "Ġmutual": 9151,
      "ativistic": 9152,
      "ĠStudent": 9153,
      "GIN": 9154,
      "Length": 9155,
      "NET": 9156,
      "rules": 9157,
      "ybrid": 9158,
      "Ġion": 9159,
      "Ġwake": 9160,
      "asion": 9161,
      "emma": 9162,
      "Ġgames": 9163,
      "ĠMaking": 9164,
      "izingthe": 9165,
      "conven": 9166,
      "ĠException": 9167,
      "ĠExcel": 9168,
      "ifyou": 9169,
      "Ġminutes": 9170,
      "Ġgeneralized": 9171,
      "remove": 9172,
      "Ġpooling": 9173,
      "Ġinduced": 9174,
      "scan": 9175,
      "Ġsynchronous": 9176,
      "arbitrary": 9177,
      "ouch": 9178,
      "sear": 9179,
      "ĠDocker": 9180,
      "Ġ${": 9181,
      "Theorem": 9182,
      "versari": 9183,
      "Ġamb": 9184,
      "Ġdesigns": 9185,
      "Ġstudents": 9186,
      "Ġfinish": 9187,
      "ĠProductService": 9188,
      "Ġmaximize": 9189,
      "Ġconcerned": 9190,
      "Ġhelper": 9191,
      "Ġ00000000": 9192,
      "Ġmultiply": 9193,
      "ituation": 9194,
      "Ġculture": 9195,
      "Ġhundreds": 9196,
      "ewritten": 9197,
      "ithreaded": 9198,
      "Python": 9199,
      "don": 9200,
      "overy": 9201,
      "Ġtip": 9202,
      "orthe": 9203,
      "Ġwin": 9204,
      "Ġfalls": 9205,
[...]
